#pragma once

#include <cstdint>

const uint8_t layer_0[] = {
28, 0, 0, 0, 84, 70, 76, 51, 20, 0, 32, 0, 28, 0, 24, 0, 20, 0, 16, 0, 12, 0, 0, 0, 8, 0, 4, 0, 20, 0, 0, 0, 28, 0, 0, 0, 156, 0, 0, 0, 244, 0, 0, 0, 196, 149, 0, 0, 212, 149, 0, 0, 136, 152, 0, 0, 3, 0, 0, 0, 1, 0, 0, 0, 16, 0, 0, 0, 0, 0, 10, 0, 16, 0, 12, 0, 8, 0, 4, 0, 10, 0, 0, 0, 12, 0, 0, 0, 28, 0, 0, 0, 60, 0, 0, 0, 15, 0, 0, 0, 115, 101, 114, 118, 105, 110, 103, 95, 100, 101, 102, 97, 117, 108, 116, 0, 1, 0, 0, 0, 4, 0, 0, 0, 140, 255, 255, 255, 3, 0, 0, 0, 4, 0, 0, 0, 8, 0, 0, 0, 111, 117, 116, 112, 117, 116, 95, 48, 0, 0, 0, 0, 1, 0, 0, 0, 4, 0, 0, 0, 202, 253, 255, 255, 4, 0, 0, 0, 16, 0, 0, 0, 107, 101, 114, 97, 115, 95, 116, 101, 110, 115, 111, 114, 95, 49, 48, 53, 0, 0, 0, 0, 2, 0, 0, 0, 52, 0, 0, 0, 4, 0, 0, 0, 220, 255, 255, 255, 6, 0, 0, 0, 4, 0, 0, 0, 19, 0, 0, 0, 67, 79, 78, 86, 69, 82, 83, 73, 79, 78, 95, 77, 69, 84, 65, 68, 65, 84, 65, 0, 8, 0, 12, 0, 8, 0, 4, 0, 8, 0, 0, 0, 5, 0, 0, 0, 4, 0, 0, 0, 19, 0, 0, 0, 109, 105, 110, 95, 114, 117, 110, 116, 105, 109, 101, 95, 118, 101, 114, 115, 105, 111, 110, 0, 7, 0, 0, 0, 204, 148, 0, 0, 196, 148, 0, 0, 180, 1, 0, 0, 156, 0, 0, 0, 148, 0, 0, 0, 116, 0, 0, 0, 4, 0, 0, 0, 102, 254, 255, 255, 4, 0, 0, 0, 96, 0, 0, 0, 16, 0, 0, 0, 0, 0, 0, 0, 8, 0, 14, 0, 8, 0, 4, 0, 8, 0, 0, 0, 16, 0, 0, 0, 36, 0, 0, 0, 0, 0, 6, 0, 8, 0, 4, 0, 6, 0, 0, 0, 4, 0, 0, 0, 0, 0, 0, 0, 12, 0, 24, 0, 20, 0, 16, 0, 12, 0, 4, 0, 12, 0, 0, 0, 129, 123, 95, 217, 140, 122, 216, 0, 2, 0, 0, 0, 2, 0, 0, 0, 4, 0, 0, 0, 6, 0, 0, 0, 50, 46, 49, 55, 46, 48, 0, 0, 210, 254, 255, 255, 4, 0, 0, 0, 16, 0, 0, 0, 49, 46, 53, 46, 48, 0, 0, 0, 0, 0, 0, 0, 0, 0, 0, 0, 76, 105, 255, 255, 242, 254, 255, 255, 4, 0, 0, 0, 0, 1, 0, 0, 0, 0, 0, 0, 0, 0, 0, 0, 0, 0, 0, 0, 0, 0, 0, 0, 0, 0, 0, 0, 0, 0, 0, 0, 0, 0, 0, 0, 0, 0, 0, 0, 0, 0, 0, 0, 0, 0, 0, 0, 0, 0, 0, 0, 0, 0, 0, 0, 0, 0, 0, 0, 0, 0, 0, 0, 0, 0, 0, 0, 0, 0, 0, 0, 0, 0, 0, 0, 0, 0, 0, 0, 0, 0, 0, 0, 0, 0, 0, 0, 0, 0, 0, 0, 0, 0, 0, 0, 0, 0, 0, 0, 0, 0, 0, 0, 0, 0, 0, 0, 0, 0, 0, 0, 0, 0, 0, 0, 0, 0, 0, 0, 0, 0, 0, 0, 0, 0, 0, 0, 0, 0, 0, 0, 0, 0, 0, 0, 0, 0, 0, 0, 0, 0, 0, 0, 0, 0, 0, 0, 0, 0, 0, 0, 0, 0, 0, 0, 0, 0, 0, 0, 0, 0, 0, 0, 0, 0, 0, 0, 0, 0, 0, 0, 0, 0, 0, 0, 0, 0, 0, 0, 0, 0, 0, 0, 0, 0, 0, 0, 0, 0, 0, 0, 0, 0, 0, 0, 0, 0, 0, 0, 0, 0, 0, 0, 0, 0, 0, 0, 0, 0, 0, 0, 0, 0, 0, 0, 0, 0, 0, 0, 0, 0, 0, 0, 0, 0, 0, 0, 0, 0, 0, 0, 0, 0, 0, 0, 0, 0, 0, 0, 0, 0, 0, 0, 0, 0, 0, 0, 0, 0, 0, 0, 0, 0, 0, 0, 0, 0, 0, 0, 0, 0, 0, 0, 0, 0, 6, 0, 8, 0, 4, 0, 6, 0, 0, 0, 4, 0, 0, 0, 0, 147, 0, 0, 64, 21, 173, 188, 77, 203, 0, 61, 203, 61, 212, 188, 182, 234, 146, 188, 1, 0, 17, 61, 101, 74, 0, 61, 32, 208, 247, 187, 18, 180, 229, 60, 211, 99, 26, 61, 134, 112, 151, 60, 144, 177, 88, 60, 187, 162, 28, 189, 16, 68, 64, 59, 185, 70, 164, 188, 5, 149, 146, 188, 72, 25, 44, 188, 184, 103, 240, 187, 116, 190, 14, 189, 159, 235, 1, 61, 195, 148, 12, 61, 112, 170, 6, 189, 2, 23, 132, 60, 106, 38, 33, 189, 192, 145, 209, 58, 89, 5, 187, 188, 143, 51, 175, 188, 178, 216, 158, 60, 0, 28, 145, 60, 218, 127, 219, 188, 57, 34, 2, 189, 68, 116, 10, 188, 92, 96, 42, 188, 217, 72, 7, 189, 201, 136, 42, 61, 37, 208, 34, 189, 24, 233, 143, 59, 116, 11, 86, 188, 38, 103, 146, 188, 18, 222, 171, 188, 148, 203, 6, 189, 254, 171, 231, 188, 227, 228, 3, 189, 94, 229, 25, 189, 127, 42, 32, 61, 128, 34, 6, 186, 84, 65, 32, 188, 75, 1, 35, 61, 60, 158, 96, 60, 218, 239, 224, 60, 198, 185, 181, 60, 240, 47, 149, 187, 135, 32, 39, 61, 82, 254, 178, 60, 199, 242, 129, 188, 112, 89, 30, 187, 236, 204, 7, 189, 147, 223, 15, 189, 244, 152, 29, 189, 121, 127, 38, 61, 254, 235, 166, 60, 96, 106, 226, 58, 252, 157, 71, 60, 40, 32, 210, 187, 37, 243, 39, 189, 1, 109, 33, 61, 184, 0, 197, 187, 104, 180, 226, 187, 181, 14, 8, 189, 30, 38, 99, 188, 240, 84, 159, 187, 222, 114, 118, 188, 118, 151, 162, 60, 130, 183, 20, 189, 112, 64, 24, 188, 182, 186, 214, 60, 0, 190, 234, 184, 176, 211, 250, 59, 188, 38, 9, 188, 48, 29, 141, 59, 141, 148, 13, 61, 20, 45, 64, 60, 168, 0, 92, 188, 255, 112, 203, 188, 74, 78, 36, 189, 200, 30, 93, 60, 140, 111, 109, 60, 208, 108, 43, 59, 0, 61, 93, 58, 199, 121, 20, 189, 88, 19, 166, 187, 228, 26, 1, 189, 134, 253, 34, 189, 142, 239, 217, 60, 33, 37, 41, 61, 130, 230, 118, 188, 238, 25, 153, 60, 70, 15, 176, 60, 94, 148, 207, 60, 0, 241, 89, 58, 148, 180, 1, 188, 14, 152, 230, 60, 0, 139, 230, 185, 165, 27, 37, 61, 159, 236, 1, 61, 244, 7, 9, 189, 13, 59, 32, 61, 147, 101, 16, 189, 223, 13, 250, 188, 188, 31, 112, 60, 174, 101, 203, 60, 162, 8, 212, 188, 174, 128, 118, 188, 64, 89, 70, 186, 96, 52, 10, 59, 3, 131, 35, 189, 16, 161, 43, 60, 128, 110, 107, 58, 2, 53, 246, 188, 210, 1, 222, 60, 138, 162, 2, 189, 97, 19, 41, 189, 196, 234, 5, 189, 4, 3, 7, 188, 144, 56, 2, 187, 170, 8, 217, 188, 223, 45, 34, 61, 0, 176, 44, 55, 32, 138, 202, 186, 124, 25, 209, 188, 118, 182, 216, 60, 59, 61, 43, 189, 34, 212, 231, 60, 64, 89, 85, 187, 13, 68, 176, 188, 170, 149, 167, 60, 112, 133, 38, 189, 45, 101, 0, 61, 240, 103, 8, 188, 225, 210, 37, 189, 192, 231, 164, 187, 57, 68, 15, 61, 160, 223, 254, 187, 226, 233, 226, 188, 225, 165, 201, 188, 211, 14, 35, 61, 157, 31, 2, 189, 24, 251, 187, 187, 22, 41, 151, 188, 220, 78, 127, 60, 230, 197, 217, 188, 154, 26, 173, 60, 88, 191, 14, 60, 69, 146, 21, 61, 216, 243, 153, 59, 223, 220, 149, 188, 88, 192, 16, 188, 184, 88, 196, 187, 0, 8, 195, 186, 68, 7, 7, 189, 18, 135, 211, 60, 26, 204, 138, 188, 16, 175, 122, 60, 170, 231, 27, 189, 228, 190, 6, 189, 54, 27, 151, 60, 154, 87, 207, 188, 154, 215, 225, 60, 125, 172, 29, 61, 199, 145, 32, 61, 243, 117, 22, 189, 72, 186, 212, 59, 192, 112, 3, 188, 69, 252, 3, 61, 226, 170, 140, 60, 20, 87, 123, 60, 193, 188, 23, 61, 222, 95, 189, 60, 53, 77, 18, 61, 220, 176, 161, 60, 0, 162, 205, 184, 120, 11, 161, 59, 86, 207, 242, 188, 32, 194, 251, 58, 25, 155, 1, 61, 216, 241, 182, 187, 152, 175, 135, 60, 174, 195, 177, 60, 52, 148, 75, 188, 85, 214, 155, 188, 20, 103, 65, 60, 108, 213, 152, 188, 203, 196, 28, 61, 24, 80, 84, 60, 135, 231, 154, 188, 186, 128, 199, 188, 167, 53, 28, 61, 20, 166, 46, 188, 236, 15, 32, 60, 219, 187, 132, 188, 146, 13, 175, 60, 12, 59, 73, 188, 224, 9, 255, 59, 172, 20, 91, 60, 32, 14, 121, 187, 62, 233, 62, 188, 66, 0, 186, 60, 96, 228, 42, 59, 252, 171, 151, 188, 0, 186, 175, 56, 192, 168, 204, 59, 191, 9, 8, 61, 73, 131, 13, 61, 41, 147, 180, 188, 144, 110, 8, 60, 176, 130, 80, 187, 104, 50, 89, 60, 21, 42, 44, 189, 112, 222, 100, 59, 38, 192, 243, 188, 163, 209, 10, 189, 193, 26, 22, 189, 208, 151, 193, 188, 64, 152, 36, 186, 109, 36, 17, 189, 127, 41, 5, 61, 12, 75, 12, 189, 230, 191, 11, 189, 160, 153, 161, 188, 73, 1, 12, 61, 192, 45, 250, 187, 184, 57, 221, 188, 176, 197, 3, 189, 228, 75, 20, 60, 130, 3, 229, 60, 32, 196, 195, 58, 79, 115, 8, 189, 0, 64, 186, 58, 194, 64, 232, 60, 48, 250, 177, 187, 96, 158, 63, 187, 206, 189, 35, 189, 205, 53, 145, 188, 193, 122, 206, 188, 208, 57, 3, 188, 242, 254, 63, 188, 46, 71, 163, 60, 92, 66, 77, 60, 7, 92, 46, 61, 0, 252, 94, 184, 82, 29, 204, 60, 134, 219, 22, 189, 201, 157, 208, 188, 238, 180, 225, 188, 38, 163, 60, 188, 254, 168, 102, 188, 238, 12, 178, 60, 66, 77, 191, 60, 116, 129, 73, 188, 36, 215, 240, 188, 182, 24, 163, 188, 193, 60, 201, 188, 219, 5, 27, 61, 58, 208, 8, 189, 8, 205, 244, 188, 160, 19, 152, 186, 34, 205, 190, 188, 240, 24, 68, 187, 211, 187, 44, 61, 131, 54, 209, 188, 84, 132, 104, 60, 241, 185, 32, 61, 148, 60, 21, 60, 172, 245, 253, 188, 101, 69, 28, 61, 240, 224, 12, 187, 238, 210, 185, 60, 208, 217, 214, 59, 35, 92, 134, 188, 202, 13, 63, 188, 12, 206, 15, 189, 179, 252, 26, 61, 43, 234, 28, 189, 208, 7, 34, 60, 65, 177, 146, 188, 80, 4, 114, 60, 94, 67, 231, 60, 184, 168, 135, 187, 110, 238, 130, 188, 236, 45, 44, 60, 32, 108, 139, 59, 77, 0, 173, 188, 144, 84, 138, 59, 32, 132, 178, 186, 160, 21, 144, 60, 48, 32, 112, 59, 192, 71, 0, 186, 254, 38, 246, 60, 58, 30, 173, 188, 70, 103, 210, 60, 236, 73, 199, 188, 237, 93, 9, 61, 24, 197, 29, 189, 138, 19, 183, 188, 162, 128, 224, 188, 240, 52, 75, 59, 16, 85, 194, 59, 136, 199, 198, 188, 19, 60, 251, 188, 20, 187, 30, 189, 206, 234, 9, 189, 29, 146, 188, 188, 186, 235, 186, 60, 28, 132, 140, 60, 181, 125, 6, 189, 162, 90, 39, 189, 199, 151, 22, 61, 254, 151, 166, 188, 138, 75, 15, 189, 96, 59, 231, 59, 48, 51, 77, 187, 180, 28, 244, 188, 12, 217, 93, 60, 136, 149, 201, 187, 232, 169, 217, 187, 4, 13, 24, 60, 66, 92, 209, 60, 92, 9, 78, 60, 240, 176, 230, 59, 208, 145, 138, 188, 135, 17, 151, 188, 80, 98, 79, 60, 242, 249, 227, 188, 112, 80, 219, 59, 192, 95, 30, 186, 147, 77, 16, 61, 86, 54, 11, 189, 112, 60, 150, 60, 106, 142, 76, 188, 51, 69, 13, 61, 228, 192, 126, 60, 154, 51, 22, 189, 177, 228, 25, 61, 3, 35, 129, 188, 89, 13, 1, 61, 192, 252, 194, 186, 220, 53, 114, 60, 192, 121, 120, 58, 32, 42, 173, 59, 34, 107, 242, 188, 112, 44, 59, 188, 122, 35, 198, 60, 192, 232, 175, 187, 254, 74, 140, 60, 156, 149, 116, 60, 128, 127, 105, 59, 244, 103, 115, 60, 102, 248, 210, 60, 125, 70, 42, 61, 147, 207, 27, 61, 122, 171, 191, 188, 188, 79, 69, 60, 48, 2, 117, 187, 158, 120, 244, 60, 72, 109, 144, 59, 217, 230, 34, 61, 158, 142, 202, 60, 203, 55, 169, 188, 205, 244, 15, 61, 75, 250, 45, 61, 192, 45, 32, 188, 237, 223, 4, 189, 72, 175, 110, 60, 11, 157, 23, 61, 175, 208, 23, 61, 224, 54, 149, 60, 65, 45, 0, 61, 41, 175, 31, 189, 6, 168, 172, 188, 240, 148, 161, 187, 25, 87, 43, 189, 150, 6, 252, 60, 187, 31, 24, 61, 34, 33, 199, 60, 174, 165, 176, 60, 12, 234, 6, 189, 151, 221, 164, 188, 150, 75, 187, 60, 198, 248, 241, 60, 125, 92, 129, 188, 1, 70, 135, 188, 198, 29, 214, 60, 252, 165, 38, 188, 227, 5, 229, 188, 75, 63, 13, 189, 119, 146, 147, 188, 97, 123, 31, 189, 112, 217, 6, 189, 40, 170, 4, 188, 216, 168, 251, 59, 124, 197, 4, 189, 244, 86, 6, 189, 130, 128, 182, 60, 112, 223, 222, 59, 0, 55, 230, 58, 247, 201, 33, 61, 148, 166, 21, 189, 144, 1, 3, 60, 230, 91, 241, 60, 0, 169, 93, 57, 208, 231, 11, 188, 14, 225, 245, 60, 68, 131, 135, 188, 138, 177, 164, 60, 192, 79, 45, 59, 52, 78, 108, 60, 47, 120, 13, 61, 124, 64, 11, 188, 36, 138, 72, 60, 118, 40, 72, 188, 210, 174, 242, 60, 248, 61, 8, 189, 98, 148, 250, 60, 192, 47, 42, 58, 16, 205, 93, 59, 66, 88, 188, 60, 148, 0, 35, 188, 1, 241, 16, 61, 32, 126, 125, 188, 13, 8, 19, 61, 40, 101, 77, 60, 208, 239, 11, 59, 0, 60, 213, 57, 60, 141, 27, 60, 51, 4, 32, 61, 11, 69, 33, 189, 16, 79, 12, 60, 208, 75, 132, 187, 43, 86, 46, 189, 101, 255, 43, 189, 22, 231, 120, 188, 30, 37, 225, 60, 137, 207, 29, 189, 43, 109, 213, 188, 122, 79, 175, 60, 152, 66, 47, 188, 9, 69, 24, 61, 38, 83, 13, 189, 156, 167, 124, 60, 240, 238, 63, 187, 13, 59, 20, 189, 157, 122, 35, 61, 219, 164, 13, 189, 232, 179, 148, 60, 207, 84, 150, 188, 88, 194, 114, 188, 19, 23, 9, 61, 17, 144, 13, 61, 17, 227, 21, 61, 64, 160, 125, 59, 128, 231, 252, 59, 80, 55, 38, 188, 254, 188, 206, 60, 4, 107, 34, 189, 57, 50, 10, 189, 135, 95, 171, 188, 17, 109, 28, 61, 0, 174, 177, 187, 168, 232, 117, 60, 191, 22, 13, 61, 240, 249, 248, 187, 11, 200, 36, 61, 246, 12, 130, 60, 5, 1, 170, 188, 44, 242, 251, 188, 112, 26, 10, 187, 48, 225, 145, 188, 54, 29, 117, 188, 40, 16, 219, 59, 208, 95, 152, 60, 196, 128, 29, 188, 188, 63, 114, 60, 138, 218, 126, 188, 66, 37, 183, 60, 75, 224, 26, 61, 56, 53, 14, 188, 32, 49, 107, 59, 103, 216, 145, 188, 151, 195, 215, 188, 122, 60, 71, 188, 64, 91, 74, 186, 234, 51, 243, 60, 22, 160, 168, 60, 63, 27, 30, 189, 52, 21, 9, 189, 64, 163, 245, 188, 32, 182, 240, 58, 44, 95, 136, 188, 248, 205, 249, 187, 124, 118, 1, 189, 88, 139, 79, 60, 66, 126, 212, 60, 27, 141, 16, 61, 0, 112, 128, 55, 114, 147, 250, 60, 84, 187, 240, 188, 224, 40, 206, 58, 48, 218, 2, 188, 97, 208, 23, 61, 240, 160, 168, 187, 6, 132, 13, 189, 22, 140, 37, 189, 99, 116, 36, 61, 170, 238, 142, 188, 238, 180, 247, 60, 34, 219, 180, 60, 16, 122, 12, 189, 126, 145, 172, 188, 20, 221, 20, 188, 48, 195, 9, 59, 91, 170, 35, 61, 22, 161, 208, 60, 140, 240, 119, 60, 112, 133, 205, 187, 124, 18, 112, 188, 248, 118, 224, 188, 128, 226, 244, 58, 64, 140, 97, 59, 0, 17, 20, 58, 12, 93, 155, 60, 118, 192, 164, 60, 104, 92, 7, 60, 128, 32, 220, 185, 86, 118, 133, 60, 170, 14, 210, 60, 176, 82, 241, 187, 24, 21, 108, 60, 5, 226, 28, 61, 220, 165, 10, 60, 52, 228, 49, 188, 240, 155, 71, 60, 244, 104, 131, 60, 41, 161, 39, 189, 11, 133, 5, 61, 164, 200, 38, 189, 48, 157, 111, 60, 165, 5, 19, 61, 112, 102, 13, 188, 200, 216, 192, 188, 51, 163, 35, 61, 66, 224, 191, 60, 72, 56, 232, 59, 24, 216, 142, 188, 176, 223, 247, 59, 184, 149, 241, 59, 87, 158, 182, 188, 5, 216, 21, 61, 230, 239, 181, 188, 115, 31, 195, 188, 238, 211, 218, 60, 21, 87, 39, 61, 168, 179, 44, 188, 90, 119, 14, 189, 48, 241, 2, 188, 200, 97, 220, 187, 32, 63, 55, 188, 138, 38, 155, 60, 248, 17, 144, 187, 12, 159, 180, 188, 228, 173, 27, 188, 114, 23, 246, 60, 113, 248, 246, 188, 33, 223, 28, 61, 90, 147, 222, 60, 5, 31, 205, 188, 94, 203, 252, 60, 252, 165, 209, 188, 160, 145, 120, 187, 254, 43, 177, 60, 143, 0, 46, 189, 144, 69, 0, 60, 230, 63, 127, 188, 144, 255, 120, 59, 75, 17, 2, 189, 52, 14, 130, 188, 220, 23, 45, 60, 162, 228, 30, 189, 14, 161, 246, 60, 64, 71, 117, 59, 80, 111, 80, 59, 100, 236, 88, 60, 170, 253, 171, 188, 34, 130, 186, 60, 198, 15, 254, 60, 8, 128, 9, 60, 96, 96, 204, 58, 17, 243, 14, 61, 40, 246, 69, 60, 192, 177, 144, 60, 220, 69, 177, 188, 37, 17, 43, 61, 224, 68, 65, 60, 100, 7, 220, 188, 170, 16, 224, 60, 49, 7, 1, 189, 111, 31, 43, 61, 208, 103, 99, 187, 0, 154, 71, 57, 104, 100, 251, 188, 168, 160, 242, 187, 128, 104, 212, 58, 79, 39, 42, 61, 253, 102, 44, 61, 72, 175, 1, 60, 64, 99, 2, 60, 92, 252, 53, 60, 57, 36, 17, 189, 70, 129, 206, 188, 229, 66, 17, 189, 52, 57, 44, 189, 173, 215, 23, 189, 172, 201, 23, 60, 139, 99, 3, 61, 242, 90, 150, 60, 79, 25, 133, 188, 226, 79, 171, 60, 94, 211, 180, 60, 31, 195, 13, 61, 20, 253, 106, 188, 191, 126, 164, 188, 48, 7, 51, 187, 87, 149, 180, 188, 72, 6, 106, 60, 216, 154, 168, 59, 32, 125, 174, 187, 51, 255, 16, 189, 232, 149, 152, 59, 247, 249, 36, 61, 232, 127, 254, 188, 126, 162, 244, 188, 99, 46, 35, 61, 219, 142, 29, 61, 112, 161, 99, 59, 46, 132, 248, 60, 251, 242, 19, 61, 146, 216, 208, 60, 5, 150, 237, 188, 204, 17, 36, 188, 0, 134, 100, 57, 252, 76, 26, 189, 156, 2, 9, 188, 225, 193, 46, 61, 208, 212, 82, 60, 193, 126, 141, 188, 126, 243, 169, 60, 180, 254, 114, 60, 80, 1, 69, 59, 160, 138, 146, 58, 224, 234, 164, 186, 181, 146, 14, 61, 163, 236, 23, 189, 132, 35, 59, 188, 48, 241, 109, 59, 154, 51, 161, 60, 240, 161, 211, 187, 96, 200, 206, 59, 224, 174, 232, 187, 52, 23, 142, 188, 128, 132, 182, 188, 0, 55, 14, 186, 68, 204, 69, 60, 11, 149, 23, 61, 212, 70, 62, 188, 48, 90, 14, 188, 158, 101, 214, 60, 76, 57, 11, 189, 116, 219, 12, 60, 218, 83, 216, 188, 78, 51, 253, 60, 15, 58, 191, 188, 134, 208, 152, 60, 64, 229, 80, 60, 97, 135, 32, 61, 215, 243, 0, 61, 208, 217, 148, 187, 224, 117, 187, 58, 39, 226, 39, 61, 112, 161, 73, 60, 216, 76, 186, 187, 108, 130, 16, 189, 232, 91, 122, 60, 5, 214, 24, 61, 111, 176, 33, 189, 216, 85, 193, 187, 156, 161, 36, 60, 14, 211, 204, 188, 109, 67, 229, 188, 137, 46, 17, 189, 163, 10, 27, 61, 209, 241, 20, 61, 31, 141, 8, 61, 250, 167, 175, 60, 32, 10, 86, 188, 15, 135, 9, 61, 154, 207, 243, 60, 56, 40, 141, 59, 32, 42, 148, 59, 51, 250, 171, 188, 42, 90, 199, 188, 164, 74, 252, 188, 106, 148, 207, 188, 86, 186, 165, 60, 153, 223, 18, 61, 238, 221, 38, 189, 92, 91, 8, 189, 188, 135, 137, 188, 22, 151, 219, 188, 244, 224, 252, 188, 162, 30, 198, 60, 96, 254, 59, 59, 72, 121, 198, 187, 182, 83, 97, 188, 56, 38, 45, 188, 120, 51, 49, 60, 0, 117, 233, 58, 39, 55, 45, 189, 115, 36, 201, 188, 108, 68, 59, 188, 163, 215, 177, 188, 204, 93, 78, 60, 201, 52, 13, 61, 80, 41, 159, 59, 175, 45, 36, 61, 15, 15, 146, 188, 150, 55, 89, 188, 157, 236, 21, 189, 128, 145, 220, 59, 65, 184, 13, 189, 75, 5, 160, 188, 74, 191, 195, 60, 3, 71, 30, 61, 128, 98, 61, 60, 22, 69, 171, 60, 219, 80, 40, 189, 122, 221, 87, 188, 154, 176, 189, 60, 195, 88, 7, 61, 37, 52, 16, 189, 0, 38, 100, 58, 26, 135, 8, 189, 125, 1, 164, 188, 253, 63, 142, 188, 101, 188, 37, 189, 200, 110, 204, 188, 95, 82, 33, 61, 160, 143, 196, 58, 118, 92, 198, 60, 102, 15, 253, 60, 145, 65, 3, 61, 160, 230, 184, 187, 14, 194, 18, 189, 214, 25, 228, 60, 19, 180, 10, 61, 52, 174, 41, 60, 96, 193, 154, 60, 186, 232, 176, 60, 128, 230, 67, 59, 0, 101, 102, 185, 181, 11, 27, 61, 0, 107, 138, 186, 89, 186, 133, 188, 61, 143, 23, 61, 82, 204, 210, 188, 217, 175, 16, 61, 153, 155, 211, 188, 138, 222, 20, 189, 131, 95, 229, 188, 99, 14, 24, 189, 159, 32, 16, 61, 161, 174, 15, 61, 0, 185, 3, 188, 36, 220, 59, 60, 66, 249, 46, 189, 128, 67, 216, 58, 0, 125, 24, 186, 216, 243, 74, 188, 236, 76, 24, 60, 116, 128, 16, 189, 167, 223, 35, 61, 44, 173, 7, 189, 254, 245, 195, 60, 89, 192, 28, 189, 232, 145, 143, 60, 147, 220, 193, 188, 96, 172, 121, 188, 45, 242, 35, 61, 46, 71, 225, 60, 254, 194, 243, 60, 176, 208, 2, 189, 8, 154, 139, 188, 234, 81, 171, 188, 215, 17, 17, 61, 14, 214, 197, 188, 77, 229, 132, 188, 1, 116, 45, 61, 165, 135, 22, 61, 6, 23, 133, 60, 228, 165, 76, 60, 224, 114, 153, 60, 206, 199, 237, 60, 209, 45, 31, 61, 136, 14, 136, 187, 178, 248, 178, 60, 243, 135, 5, 61, 233, 117, 21, 61, 52, 42, 45, 60, 0, 184, 61, 184, 157, 169, 30, 189, 228, 97, 6, 188, 16, 106, 165, 187, 186, 217, 174, 60, 160, 39, 213, 186, 80, 177, 11, 188, 172, 64, 95, 60, 9, 83, 22, 61, 181, 175, 14, 61, 236, 11, 62, 188, 213, 75, 33, 189, 180, 194, 44, 188, 100, 181, 70, 60, 58, 240, 68, 188, 124, 158, 45, 188, 206, 60, 202, 60, 66, 138, 231, 60, 36, 181, 221, 188, 70, 75, 154, 60, 16, 251, 62, 60, 245, 225, 129, 188, 164, 52, 113, 60, 63, 178, 22, 61, 222, 218, 205, 188, 63, 138, 29, 61, 148, 195, 123, 60, 18, 123, 164, 188, 192, 216, 12, 58, 58, 251, 253, 60, 152, 59, 149, 188, 243, 48, 32, 61, 88, 255, 126, 60, 15, 101, 202, 188, 174, 38, 162, 60, 88, 71, 186, 188, 194, 103, 167, 60, 33, 115, 12, 61, 121, 125, 159, 188, 138, 254, 193, 188, 184, 228, 128, 187, 160, 30, 24, 60, 102, 66, 199, 60, 106, 172, 22, 189, 102, 96, 179, 60, 234, 95, 193, 60, 184, 200, 13, 60, 221, 229, 43, 61, 183, 122, 155, 188, 128, 31, 232, 185, 232, 150, 66, 60, 244, 168, 98, 60, 96, 33, 131, 58, 59, 148, 45, 189, 109, 94, 13, 61, 32, 26, 135, 186, 12, 34, 72, 60, 64, 74, 43, 189, 26, 3, 41, 189, 145, 174, 214, 188, 102, 72, 238, 60, 232, 78, 130, 188, 155, 199, 167, 188, 208, 35, 26, 59, 166, 219, 161, 60, 240, 36, 17, 189, 253, 229, 22, 189, 95, 22, 26, 61, 154, 219, 198, 188, 128, 8, 164, 58, 248, 138, 216, 187, 56, 8, 153, 59, 138, 168, 255, 60, 31, 35, 24, 61, 224, 60, 211, 186, 118, 51, 21, 189, 192, 247, 1, 187, 174, 85, 113, 188, 45, 191, 220, 188, 165, 61, 3, 189, 18, 167, 21, 189, 57, 40, 42, 61, 189, 167, 219, 188, 42, 183, 141, 60, 4, 122, 69, 60, 120, 138, 153, 60, 144, 26, 171, 59, 200, 197, 112, 188, 222, 243, 4, 189, 209, 34, 4, 61, 160, 121, 75, 59, 254, 240, 105, 188, 66, 116, 197, 60, 36, 179, 36, 188, 101, 177, 26, 61, 72, 211, 41, 60, 170, 223, 180, 60, 133, 213, 175, 188, 212, 86, 81, 60, 20, 202, 9, 188, 176, 60, 234, 187, 59, 227, 5, 189, 52, 172, 13, 60, 23, 9, 211, 188, 231, 19, 153, 188, 0, 194, 33, 60, 230, 35, 255, 188, 85, 129, 146, 188, 159, 173, 38, 61, 167, 235, 8, 189, 227, 38, 31, 61, 80, 36, 243, 59, 64, 48, 85, 58, 184, 176, 145, 59, 96, 247, 120, 188, 182, 113, 70, 188, 160, 43, 191, 187, 3, 216, 43, 61, 128, 181, 215, 186, 198, 206, 184, 60, 221, 124, 20, 61, 7, 213, 25, 61, 168, 84, 201, 59, 228, 202, 58, 188, 88, 213, 7, 60, 8, 163, 226, 59, 138, 113, 168, 188, 48, 238, 173, 188, 240, 226, 15, 188, 107, 42, 2, 61, 240, 94, 231, 188, 226, 229, 160, 188, 81, 172, 138, 188, 242, 74, 69, 188, 232, 2, 250, 188, 160, 94, 187, 186, 39, 251, 14, 61, 1, 229, 15, 61, 41, 235, 2, 61, 7, 54, 144, 188, 178, 44, 213, 60, 48, 163, 5, 189, 187, 171, 23, 189, 137, 23, 9, 61, 14, 177, 243, 60, 92, 134, 26, 60, 156, 179, 56, 188, 89, 82, 15, 61, 136, 92, 23, 188, 66, 210, 8, 189, 95, 39, 236, 188, 32, 119, 63, 188, 104, 48, 44, 188, 94, 95, 19, 189, 106, 82, 222, 60, 191, 56, 34, 61, 204, 93, 29, 189, 96, 242, 253, 59, 26, 162, 217, 60, 64, 104, 120, 59, 189, 11, 169, 188, 208, 60, 72, 59, 211, 207, 21, 61, 35, 149, 36, 189, 64, 105, 75, 187, 16, 251, 224, 187, 20, 136, 25, 60, 130, 22, 177, 60, 122, 252, 172, 188, 130, 75, 208, 60, 64, 235, 110, 60, 59, 160, 18, 189, 14, 64, 186, 60, 192, 172, 160, 58, 90, 166, 205, 60, 239, 185, 46, 189, 34, 194, 155, 60, 18, 74, 75, 188, 68, 95, 23, 60, 96, 104, 147, 60, 40, 189, 255, 59, 22, 97, 254, 60, 4, 218, 138, 188, 240, 24, 84, 188, 241, 210, 38, 61, 99, 181, 238, 188, 160, 3, 111, 59, 35, 99, 1, 61, 102, 84, 109, 188, 226, 252, 84, 188, 21, 56, 15, 61, 144, 170, 44, 187, 54, 220, 169, 188, 167, 59, 172, 188, 128, 243, 38, 189, 0, 101, 214, 59, 71, 104, 27, 61, 230, 208, 139, 188, 158, 97, 104, 188, 25, 148, 9, 189, 231, 185, 28, 61, 65, 9, 23, 61, 146, 65, 176, 188, 156, 241, 213, 188, 138, 55, 73, 188, 18, 24, 197, 60, 76, 150, 14, 188, 192, 53, 77, 59, 0, 196, 138, 56, 135, 191, 205, 188, 41, 22, 35, 61, 96, 65, 167, 58, 224, 91, 27, 187, 11, 89, 19, 61, 6, 139, 94, 188, 4, 153, 156, 60, 84, 163, 133, 188, 164, 154, 150, 60, 200, 156, 197, 59, 226, 53, 230, 188, 8, 38, 59, 188, 244, 133, 178, 188, 64, 46, 201, 58, 39, 134, 28, 61, 50, 64, 251, 60, 237, 59, 13, 61, 152, 115, 244, 188, 96, 212, 68, 187, 220, 237, 82, 60, 178, 102, 113, 188, 144, 77, 158, 188, 156, 84, 48, 60, 204, 30, 238, 188, 54, 187, 217, 188, 224, 90, 66, 60, 204, 214, 47, 188, 135, 125, 138, 188, 0, 218, 50, 59, 237, 252, 34, 189, 188, 153, 1, 60, 24, 50, 14, 188, 212, 176, 60, 188, 241, 202, 193, 188, 173, 53, 39, 189, 27, 117, 45, 61, 59, 220, 21, 61, 172, 6, 98, 60, 161, 200, 39, 189, 120, 176, 1, 60, 168, 101, 234, 187, 69, 28, 150, 188, 108, 8, 151, 188, 194, 188, 35, 189, 7, 241, 28, 61, 218, 71, 255, 60, 20, 116, 144, 60, 144, 108, 235, 59, 56, 211, 2, 188, 16, 65, 121, 59, 243, 94, 131, 188, 42, 141, 36, 189, 94, 70, 194, 60, 44, 27, 39, 189, 178, 12, 177, 60, 118, 249, 144, 60, 251, 29, 45, 61, 128, 204, 109, 58, 178, 166, 40, 189, 127, 14, 43, 189, 184, 31, 86, 188, 209, 56, 40, 189, 22, 137, 179, 60, 175, 228, 1, 189, 142, 84, 180, 188, 227, 223, 18, 61, 14, 205, 157, 188, 134, 119, 170, 188, 37, 93, 146, 188, 0, 225, 43, 189, 98, 148, 126, 188, 238, 247, 226, 60, 0, 117, 179, 58, 0, 141, 121, 60, 38, 32, 147, 188, 246, 223, 190, 60, 224, 232, 24, 188, 72, 205, 186, 188, 220, 180, 67, 188, 102, 212, 196, 188, 160, 35, 109, 59, 108, 211, 60, 60, 67, 31, 134, 188, 72, 224, 201, 59, 72, 26, 30, 60, 92, 104, 16, 188, 135, 249, 188, 188, 71, 150, 32, 61, 168, 183, 109, 60, 173, 166, 170, 188, 159, 121, 220, 188, 27, 202, 189, 188, 234, 137, 34, 189, 160, 64, 27, 188, 114, 189, 169, 60, 189, 237, 12, 61, 176, 154, 175, 59, 14, 155, 19, 189, 123, 96, 29, 61, 178, 30, 173, 60, 41, 4, 154, 188, 57, 43, 163, 188, 199, 208, 221, 188, 63, 23, 10, 189, 136, 171, 24, 60, 201, 58, 3, 61, 81, 123, 42, 189, 162, 203, 0, 189, 62, 21, 242, 60, 39, 21, 11, 189, 136, 98, 11, 189, 34, 47, 8, 189, 224, 163, 144, 188, 0, 0, 71, 58, 116, 249, 207, 188, 126, 35, 164, 60, 18, 124, 235, 60, 6, 61, 96, 188, 207, 24, 43, 61, 194, 71, 135, 60, 160, 141, 126, 59, 148, 46, 135, 188, 6, 207, 171, 188, 160, 174, 42, 188, 112, 211, 10, 60, 190, 145, 249, 60, 236, 76, 140, 60, 27, 13, 31, 189, 5, 168, 31, 61, 44, 59, 8, 60, 235, 159, 9, 61, 80, 128, 19, 188, 192, 11, 36, 187, 78, 68, 251, 188, 240, 17, 103, 60, 194, 81, 197, 60, 166, 32, 111, 188, 20, 124, 200, 188, 28, 222, 104, 188, 233, 159, 24, 189, 188, 14, 119, 188, 204, 71, 222, 188, 4, 51, 25, 189, 170, 33, 238, 60, 48, 201, 144, 187, 221, 207, 1, 189, 158, 2, 2, 189, 62, 140, 3, 189, 43, 116, 200, 188, 187, 129, 171, 188, 39, 78, 183, 188, 31, 36, 11, 61, 120, 70, 60, 60, 11, 225, 215, 188, 117, 133, 152, 188, 218, 45, 193, 60, 251, 183, 209, 188, 227, 26, 8, 61, 185, 47, 180, 188, 210, 235, 191, 60, 242, 87, 191, 60, 248, 218, 145, 59, 80, 53, 173, 187, 128, 42, 133, 186, 174, 154, 243, 60, 150, 149, 157, 188, 0, 8, 119, 185, 59, 199, 39, 189, 4, 26, 169, 188, 224, 227, 237, 58, 174, 155, 241, 60, 84, 255, 4, 189, 56, 96, 167, 187, 64, 2, 31, 60, 128, 145, 3, 59, 16, 41, 12, 189, 162, 103, 239, 188, 34, 127, 194, 188, 151, 69, 45, 189, 151, 122, 36, 61, 57, 170, 13, 61, 250, 168, 201, 60, 68, 57, 76, 60, 163, 191, 227, 188, 254, 87, 13, 189, 130, 9, 190, 60, 232, 8, 128, 59, 106, 230, 183, 60, 48, 238, 123, 60, 183, 119, 184, 188, 14, 131, 147, 60, 34, 255, 203, 60, 120, 5, 131, 60, 195, 200, 41, 61, 112, 54, 112, 60, 120, 102, 10, 188, 186, 117, 237, 60, 101, 137, 208, 188, 120, 81, 139, 59, 240, 0, 130, 59, 146, 85, 217, 188, 186, 197, 117, 188, 90, 67, 147, 60, 2, 161, 203, 60, 60, 69, 248, 188, 148, 215, 79, 60, 136, 133, 35, 188, 96, 33, 239, 188, 169, 212, 250, 188, 141, 58, 43, 61, 38, 13, 21, 189, 224, 255, 173, 187, 181, 116, 32, 61, 200, 137, 90, 60, 0, 115, 157, 60, 128, 72, 63, 187, 59, 133, 254, 188, 116, 92, 223, 188, 80, 230, 56, 60, 4, 71, 213, 188, 13, 97, 217, 188, 104, 16, 152, 60, 26, 184, 135, 60, 48, 62, 190, 59, 16, 210, 91, 59, 228, 88, 88, 60, 72, 227, 60, 60, 198, 97, 232, 60, 106, 170, 245, 188, 76, 71, 130, 188, 179, 169, 1, 61, 200, 159, 186, 59, 64, 251, 75, 59, 142, 179, 147, 188, 67, 52, 131, 188, 96, 102, 73, 187, 128, 80, 197, 186, 154, 213, 11, 189, 112, 215, 220, 188, 0, 228, 211, 59, 15, 167, 37, 189, 11, 223, 24, 61, 226, 201, 170, 60, 59, 165, 20, 189, 179, 52, 243, 188, 82, 162, 186, 60, 60, 115, 36, 189, 32, 240, 62, 60, 113, 180, 176, 188, 154, 208, 205, 60, 224, 223, 134, 59, 96, 221, 36, 189, 1, 130, 22, 61, 78, 225, 166, 60, 34, 180, 157, 60, 232, 25, 78, 60, 130, 120, 228, 188, 96, 183, 237, 58, 34, 251, 173, 60, 232, 99, 214, 59, 242, 12, 8, 189, 96, 79, 238, 59, 133, 218, 17, 189, 240, 230, 130, 59, 160, 18, 38, 188, 124, 200, 11, 60, 249, 191, 175, 188, 217, 168, 44, 189, 132, 58, 26, 188, 240, 219, 176, 59, 48, 11, 59, 59, 244, 209, 215, 188, 5, 29, 35, 61, 90, 92, 11, 189, 128, 120, 107, 60, 43, 227, 192, 188, 186, 61, 158, 60, 56, 211, 166, 187, 178, 214, 181, 60, 95, 13, 140, 188, 46, 170, 140, 60, 0, 248, 100, 56, 0, 3, 126, 186, 232, 1, 99, 60, 236, 10, 131, 60, 140, 193, 19, 60, 70, 54, 228, 60, 118, 234, 198, 60, 200, 125, 72, 60, 179, 7, 161, 188, 232, 57, 7, 189, 25, 183, 10, 61, 48, 121, 12, 189, 102, 77, 212, 60, 232, 120, 221, 188, 124, 95, 11, 188, 170, 93, 181, 60, 30, 92, 189, 60, 160, 94, 142, 186, 236, 5, 99, 60, 152, 94, 74, 60, 130, 40, 210, 60, 167, 196, 5, 189, 1, 130, 254, 188, 20, 91, 88, 60, 21, 216, 5, 61, 143, 199, 23, 189, 50, 223, 242, 188, 71, 154, 10, 189, 0, 229, 96, 187, 32, 237, 101, 59, 0, 112, 162, 183, 124, 38, 2, 189, 114, 237, 121, 188, 238, 157, 14, 189, 32, 210, 182, 187, 168, 129, 214, 59, 250, 200, 69, 188, 48, 174, 216, 187, 153, 207, 20, 189, 110, 206, 99, 188, 40, 167, 216, 59, 240, 203, 7, 60, 178, 99, 252, 188, 128, 189, 246, 57, 186, 143, 196, 60, 65, 191, 251, 188, 72, 60, 250, 59, 123, 86, 198, 188, 22, 242, 184, 60, 224, 0, 0, 189, 192, 72, 26, 188, 66, 192, 162, 60, 64, 150, 161, 188, 56, 41, 77, 188, 151, 172, 211, 188, 154, 17, 119, 188, 101, 189, 38, 61, 66, 12, 255, 188, 41, 114, 34, 61, 76, 150, 30, 60, 150, 27, 162, 60, 124, 31, 27, 60, 35, 29, 173, 188, 177, 167, 31, 61, 44, 253, 161, 188, 5, 205, 24, 61, 140, 26, 53, 188, 208, 110, 2, 59, 86, 109, 41, 189, 86, 203, 250, 60, 66, 208, 145, 188, 209, 53, 15, 61, 76, 51, 5, 188, 184, 133, 235, 187, 89, 77, 39, 61, 96, 51, 91, 187, 128, 210, 173, 185, 234, 191, 101, 188, 48, 44, 125, 59, 190, 24, 99, 188, 172, 165, 22, 189, 38, 113, 174, 60, 214, 203, 234, 60, 236, 254, 97, 60, 154, 27, 237, 60, 24, 41, 60, 60, 186, 103, 160, 60, 18, 173, 162, 60, 222, 23, 138, 188, 80, 112, 81, 60, 12, 95, 142, 188, 30, 114, 188, 60, 16, 148, 23, 60, 193, 59, 8, 61, 62, 20, 116, 188, 213, 119, 38, 61, 248, 208, 194, 59, 139, 13, 40, 61, 25, 173, 35, 61, 66, 149, 228, 188, 225, 46, 39, 61, 17, 115, 39, 189, 205, 151, 38, 61, 43, 59, 26, 189, 99, 121, 11, 61, 16, 12, 89, 187, 38, 2, 152, 188, 238, 34, 23, 189, 73, 93, 28, 61, 20, 110, 70, 60, 208, 85, 99, 59, 232, 146, 217, 59, 254, 119, 174, 60, 118, 171, 188, 60, 48, 21, 195, 187, 176, 236, 96, 188, 160, 22, 52, 188, 0, 51, 118, 57, 239, 155, 27, 61, 70, 111, 146, 60, 108, 208, 13, 189, 224, 132, 114, 187, 236, 1, 13, 188, 60, 193, 126, 60, 88, 170, 55, 60, 248, 225, 228, 59, 192, 130, 98, 186, 96, 119, 17, 59, 132, 122, 142, 60, 142, 91, 46, 189, 159, 135, 210, 188, 136, 20, 156, 188, 96, 28, 78, 60, 36, 212, 68, 60, 121, 5, 42, 61, 141, 239, 9, 189, 120, 215, 229, 188, 8, 139, 135, 59, 213, 156, 23, 189, 64, 244, 113, 58, 125, 147, 129, 188, 255, 104, 18, 189, 16, 179, 36, 189, 120, 214, 6, 188, 177, 116, 35, 61, 224, 143, 157, 60, 242, 208, 28, 189, 157, 196, 13, 61, 21, 68, 41, 61, 76, 130, 39, 189, 142, 241, 164, 60, 242, 124, 213, 60, 86, 5, 39, 189, 86, 90, 173, 60, 230, 190, 198, 60, 60, 56, 104, 188, 98, 241, 242, 60, 132, 56, 25, 60, 126, 57, 152, 60, 123, 227, 43, 61, 153, 67, 11, 61, 24, 239, 157, 59, 28, 93, 153, 60, 160, 23, 95, 60, 18, 160, 194, 60, 187, 77, 17, 61, 152, 231, 211, 59, 64, 133, 62, 60, 244, 158, 113, 60, 24, 58, 10, 60, 127, 90, 39, 189, 153, 76, 16, 61, 62, 186, 1, 189, 202, 139, 228, 188, 64, 128, 243, 58, 174, 200, 189, 60, 192, 105, 90, 59, 212, 135, 140, 60, 184, 105, 50, 188, 200, 92, 0, 188, 158, 107, 26, 189, 32, 168, 45, 187, 157, 98, 34, 61, 186, 78, 248, 60, 244, 29, 6, 60, 160, 182, 234, 188, 47, 215, 45, 61, 233, 201, 39, 61, 80, 121, 87, 188, 36, 141, 116, 60, 142, 28, 147, 60, 196, 172, 85, 60, 180, 142, 30, 189, 162, 104, 12, 189, 56, 246, 56, 188, 32, 73, 88, 59, 50, 57, 242, 188, 16, 172, 78, 60, 61, 111, 169, 188, 75, 129, 22, 61, 0, 55, 110, 185, 173, 197, 129, 188, 148, 203, 151, 60, 173, 141, 10, 61, 255, 47, 219, 188, 110, 129, 250, 60, 30, 229, 200, 60, 169, 218, 4, 61, 170, 137, 243, 188, 59, 133, 13, 61, 23, 191, 216, 188, 44, 122, 44, 189, 28, 76, 192, 188, 184, 165, 24, 60, 186, 239, 219, 60, 0, 112, 179, 187, 0, 92, 235, 59, 208, 23, 125, 187, 100, 66, 1, 60, 96, 224, 149, 188, 135, 251, 39, 61, 216, 103, 174, 187, 12, 155, 142, 188, 38, 193, 202, 60, 128, 164, 156, 57, 24, 160, 141, 187, 132, 17, 247, 188, 194, 247, 203, 60, 72, 125, 47, 60, 248, 117, 18, 189, 96, 171, 15, 187, 32, 228, 121, 188, 200, 167, 59, 60, 164, 242, 58, 188, 182, 141, 208, 188, 54, 22, 63, 188, 136, 252, 150, 187, 136, 235, 36, 188, 156, 141, 31, 60, 17, 103, 36, 61, 228, 23, 168, 188, 14, 9, 201, 60, 100, 113, 236, 188, 92, 57, 39, 60, 104, 232, 46, 189, 56, 140, 178, 187, 221, 222, 217, 188, 81, 70, 1, 61, 236, 117, 194, 188, 7, 40, 148, 188, 210, 130, 207, 60, 0, 181, 1, 58, 112, 85, 144, 59, 248, 210, 247, 187, 122, 34, 246, 188, 7, 143, 217, 188, 138, 234, 211, 60, 68, 152, 107, 60, 194, 147, 209, 60, 61, 81, 40, 189, 12, 226, 55, 188, 92, 225, 33, 189, 91, 249, 190, 188, 86, 20, 195, 60, 107, 69, 138, 188, 241, 106, 11, 189, 44, 21, 9, 189, 250, 155, 36, 189, 2, 78, 103, 188, 64, 174, 152, 59, 60, 188, 109, 60, 64, 111, 209, 187, 80, 70, 26, 60, 160, 81, 93, 187, 145, 107, 203, 188, 54, 170, 141, 60, 226, 90, 62, 188, 213, 44, 1, 61, 48, 52, 3, 189, 44, 167, 222, 188, 180, 57, 138, 188, 150, 111, 211, 188, 85, 119, 24, 61, 227, 149, 177, 188, 91, 233, 19, 189, 144, 115, 221, 59, 74, 96, 226, 60, 19, 248, 188, 188, 119, 74, 17, 61, 93, 223, 39, 61, 112, 117, 18, 189, 254, 18, 19, 189, 4, 14, 5, 188, 176, 102, 149, 188, 13, 252, 194, 188, 9, 65, 22, 189, 46, 1, 221, 60, 253, 186, 8, 61, 149, 243, 32, 189, 239, 78, 35, 61, 201, 100, 161, 188, 110, 166, 40, 189, 236, 230, 63, 60, 167, 205, 32, 189, 187, 40, 24, 61, 70, 32, 254, 60, 46, 78, 247, 60, 164, 140, 79, 60, 24, 177, 67, 60, 66, 12, 144, 60, 73, 22, 38, 61, 238, 202, 33, 189, 16, 4, 255, 187, 157, 214, 41, 61, 199, 96, 36, 189, 36, 227, 93, 188, 156, 178, 26, 60, 29, 203, 189, 188, 87, 150, 9, 61, 28, 253, 87, 60, 160, 162, 81, 59, 104, 169, 10, 188, 208, 60, 190, 187, 102, 5, 25, 189, 36, 210, 39, 189, 232, 18, 176, 59, 190, 132, 13, 189, 216, 150, 149, 60, 163, 149, 21, 189, 100, 20, 45, 188, 164, 165, 95, 188, 144, 187, 65, 59, 16, 1, 114, 60, 60, 84, 19, 188, 228, 46, 40, 189, 92, 3, 165, 188, 238, 122, 27, 189, 233, 184, 35, 189, 228, 123, 139, 188, 44, 118, 130, 60, 48, 72, 83, 188, 208, 239, 10, 187, 128, 231, 83, 59, 192, 70, 30, 188, 209, 33, 25, 61, 10, 65, 76, 188, 223, 156, 2, 189, 192, 66, 127, 59, 226, 185, 189, 60, 176, 80, 84, 59, 72, 201, 18, 189, 238, 34, 243, 60, 192, 68, 32, 187, 32, 226, 48, 188, 210, 126, 210, 60, 217, 241, 243, 188, 222, 192, 171, 60, 96, 57, 53, 188, 79, 119, 44, 61, 32, 203, 116, 59, 216, 233, 210, 59, 0, 154, 153, 56, 224, 135, 203, 58, 168, 74, 232, 59, 160, 43, 93, 187, 64, 157, 4, 58, 147, 10, 45, 189, 59, 128, 46, 61, 111, 90, 31, 61, 143, 137, 16, 61, 172, 66, 45, 189, 142, 170, 149, 188, 116, 82, 0, 189, 72, 204, 242, 188, 18, 31, 234, 60, 161, 130, 30, 61, 228, 51, 82, 188, 71, 203, 8, 61, 88, 26, 159, 59, 176, 75, 232, 59, 208, 133, 106, 59, 61, 182, 192, 188, 240, 185, 28, 187, 223, 243, 32, 189, 222, 160, 192, 60, 146, 103, 211, 188, 166, 95, 210, 60, 56, 53, 183, 59, 132, 87, 197, 188, 243, 212, 13, 61, 51, 84, 40, 61, 189, 5, 11, 61, 89, 47, 36, 189, 56, 121, 28, 189, 88, 55, 31, 189, 161, 151, 10, 61, 0, 85, 14, 189, 68, 30, 33, 60, 126, 45, 171, 60, 21, 51, 186, 188, 99, 27, 22, 61, 204, 126, 94, 188, 44, 58, 16, 189, 52, 36, 34, 60, 252, 40, 95, 188, 176, 73, 219, 59, 130, 255, 146, 188, 227, 44, 254, 188, 32, 227, 135, 59, 146, 130, 93, 188, 158, 182, 1, 189, 90, 20, 179, 60, 122, 195, 14, 189, 88, 116, 129, 60, 34, 107, 137, 188, 0, 108, 20, 56, 68, 217, 41, 60, 194, 115, 162, 188, 12, 26, 21, 189, 216, 72, 201, 187, 0, 58, 31, 186, 42, 85, 159, 60, 168, 219, 250, 187, 226, 124, 237, 60, 96, 121, 136, 186, 72, 253, 3, 188, 50, 75, 139, 60, 0, 0, 128, 185, 192, 37, 55, 187, 90, 122, 194, 60, 81, 9, 230, 188, 64, 68, 246, 188, 96, 202, 40, 187, 222, 121, 255, 60, 126, 199, 3, 189, 223, 183, 14, 189, 37, 171, 182, 188, 136, 168, 156, 60, 31, 62, 19, 61, 224, 21, 154, 187, 37, 183, 18, 61, 166, 162, 209, 188, 184, 89, 230, 59, 217, 6, 0, 61, 226, 56, 255, 60, 8, 2, 7, 189, 238, 42, 201, 60, 114, 173, 167, 60, 136, 80, 128, 188, 250, 38, 231, 60, 64, 247, 36, 186, 80, 121, 130, 187, 18, 37, 187, 188, 94, 179, 203, 60, 218, 16, 229, 188, 120, 68, 236, 187, 102, 167, 136, 188, 194, 228, 8, 189, 206, 70, 101, 188, 131, 119, 23, 61, 225, 238, 150, 188, 204, 147, 36, 188, 45, 114, 22, 189, 214, 227, 178, 60, 248, 86, 64, 188, 159, 50, 46, 61, 96, 57, 89, 59, 100, 169, 20, 188, 111, 180, 26, 61, 187, 178, 158, 188, 146, 144, 239, 60, 198, 169, 117, 188, 192, 33, 17, 58, 127, 190, 41, 61, 234, 220, 215, 60, 18, 81, 174, 188, 189, 53, 151, 188, 106, 234, 228, 60, 228, 192, 122, 60, 0, 164, 40, 188, 16, 15, 109, 60, 241, 9, 28, 189, 16, 106, 11, 59, 38, 166, 186, 60, 16, 181, 160, 60, 204, 90, 42, 188, 112, 180, 191, 187, 188, 102, 41, 188, 228, 199, 27, 189, 156, 172, 18, 60, 216, 77, 30, 60, 225, 191, 12, 61, 106, 222, 229, 188, 128, 0, 132, 185, 48, 77, 80, 60, 184, 2, 44, 189, 98, 75, 170, 188, 176, 102, 27, 189, 208, 190, 245, 187, 120, 32, 229, 59, 224, 126, 131, 59, 192, 63, 71, 187, 114, 146, 249, 60, 18, 52, 149, 188, 134, 90, 112, 188, 18, 51, 238, 60, 0, 79, 161, 187, 162, 2, 177, 188, 16, 25, 38, 187, 2, 173, 232, 60, 253, 52, 41, 61, 130, 144, 207, 60, 72, 67, 86, 188, 212, 178, 77, 60, 70, 8, 9, 189, 217, 204, 33, 61, 80, 171, 102, 59, 154, 247, 196, 60, 110, 214, 239, 60, 162, 36, 196, 60, 197, 87, 165, 188, 171, 53, 36, 61, 169, 57, 11, 189, 244, 253, 12, 60, 119, 160, 42, 61, 143, 63, 23, 61, 92, 187, 87, 60, 58, 164, 1, 189, 114, 178, 227, 60, 50, 111, 191, 60, 2, 55, 138, 188, 27, 80, 14, 61, 224, 152, 158, 186, 169, 2, 10, 189, 128, 74, 171, 57, 240, 106, 76, 60, 229, 209, 3, 189, 198, 177, 220, 188, 190, 154, 197, 60, 148, 210, 106, 60, 109, 154, 28, 61, 88, 126, 125, 60, 250, 199, 255, 188, 240, 204, 11, 59, 108, 119, 222, 188, 11, 192, 229, 188, 196, 205, 134, 60, 25, 207, 206, 188, 217, 166, 2, 61, 189, 249, 16, 61, 127, 122, 30, 61, 161, 243, 45, 189, 199, 123, 28, 61, 86, 206, 252, 188, 21, 197, 165, 188, 20, 132, 52, 188, 220, 70, 29, 189, 189, 53, 10, 189, 208, 35, 202, 59, 217, 209, 7, 61, 140, 249, 100, 60, 48, 9, 118, 60, 153, 160, 217, 188, 144, 200, 120, 60, 190, 33, 156, 188, 33, 221, 36, 189, 192, 54, 27, 60, 104, 5, 184, 187, 72, 170, 228, 187, 72, 134, 110, 60, 128, 202, 177, 186, 152, 79, 66, 188, 64, 229, 203, 186, 234, 97, 218, 60, 232, 185, 26, 60, 160, 250, 151, 59, 213, 35, 207, 188, 80, 78, 131, 187, 161, 43, 23, 189, 176, 96, 129, 59, 96, 12, 59, 187, 176, 81, 2, 60, 171, 218, 21, 189, 54, 76, 71, 188, 60, 195, 34, 189, 171, 239, 13, 61, 226, 126, 250, 60, 208, 8, 144, 59, 110, 192, 231, 60, 192, 50, 14, 186, 216, 37, 229, 59, 237, 176, 28, 189, 33, 249, 18, 189, 114, 25, 182, 60, 140, 201, 100, 188, 32, 161, 110, 60, 39, 61, 18, 61, 47, 74, 36, 61, 91, 157, 13, 61, 86, 193, 242, 188, 40, 20, 68, 60, 58, 40, 222, 60, 226, 73, 150, 60, 190, 105, 133, 60, 191, 250, 182, 188, 216, 207, 164, 188, 220, 145, 126, 60, 130, 240, 182, 60, 216, 98, 105, 188, 69, 221, 29, 61, 166, 227, 21, 189, 40, 215, 194, 188, 124, 240, 150, 188, 159, 117, 178, 188, 176, 147, 37, 187, 108, 94, 233, 188, 16, 197, 122, 59, 152, 4, 221, 187, 204, 168, 108, 60, 248, 221, 65, 60, 215, 96, 7, 61, 204, 45, 6, 189, 240, 158, 9, 187, 40, 79, 55, 60, 36, 102, 80, 60, 110, 137, 198, 60, 188, 145, 46, 60, 96, 66, 255, 187, 64, 134, 248, 187, 52, 189, 18, 189, 224, 113, 164, 58, 174, 82, 196, 60, 112, 27, 54, 60, 19, 164, 238, 188, 216, 190, 202, 187, 88, 84, 198, 187, 39, 242, 9, 61, 60, 63, 209, 188, 129, 120, 45, 61, 86, 192, 36, 189, 248, 242, 156, 59, 88, 99, 179, 187, 248, 149, 30, 189, 107, 145, 13, 61, 4, 145, 209, 188, 128, 27, 193, 58, 32, 237, 63, 60, 46, 142, 150, 188, 207, 89, 150, 188, 3, 201, 254, 188, 80, 157, 96, 59, 113, 16, 24, 61, 233, 238, 42, 61, 171, 243, 7, 189, 19, 248, 35, 61, 0, 74, 25, 188, 224, 252, 244, 59, 195, 43, 223, 188, 81, 117, 255, 188, 0, 78, 209, 58, 132, 60, 99, 60, 162, 17, 230, 188, 147, 33, 178, 188, 60, 109, 81, 188, 130, 220, 35, 189, 208, 127, 107, 187, 206, 93, 237, 188, 70, 58, 155, 60, 29, 40, 42, 61, 173, 68, 10, 61, 69, 152, 28, 189, 64, 71, 7, 59, 214, 97, 251, 60, 132, 240, 73, 188, 7, 114, 22, 61, 92, 184, 44, 60, 249, 198, 45, 61, 190, 153, 168, 60, 50, 39, 253, 60, 248, 85, 239, 187, 142, 239, 141, 60, 160, 29, 230, 187, 83, 122, 41, 189, 0, 32, 170, 57, 138, 18, 199, 60, 106, 212, 239, 60, 128, 58, 160, 58, 255, 78, 11, 61, 64, 44, 182, 59, 53, 68, 5, 61, 156, 114, 62, 60, 232, 155, 194, 188, 121, 74, 9, 189, 99, 97, 28, 61, 30, 127, 178, 60, 53, 204, 42, 61, 194, 61, 183, 188, 92, 20, 21, 189, 98, 43, 209, 60, 254, 43, 118, 188, 2, 225, 37, 189, 235, 160, 39, 61, 164, 104, 6, 188, 247, 66, 8, 61, 62, 229, 227, 60, 88, 209, 221, 187, 192, 12, 139, 186, 32, 69, 186, 186, 171, 220, 25, 61, 224, 189, 57, 59, 136, 242, 214, 59, 45, 45, 15, 61, 224, 107, 156, 59, 188, 151, 25, 189, 252, 249, 5, 189, 176, 198, 23, 188, 80, 238, 55, 59, 217, 152, 46, 189, 242, 253, 61, 188, 144, 105, 188, 187, 74, 62, 197, 60, 153, 137, 46, 61, 135, 178, 25, 189, 128, 203, 229, 57, 215, 0, 45, 61, 166, 28, 97, 188, 243, 126, 173, 188, 96, 183, 126, 59, 252, 86, 39, 188, 51, 27, 6, 189, 97, 200, 2, 61, 62, 138, 130, 188, 223, 132, 155, 188, 224, 122, 92, 60, 149, 116, 44, 61, 113, 138, 24, 61, 182, 56, 34, 189, 242, 80, 216, 60, 248, 167, 102, 60, 103, 229, 44, 61, 11, 205, 150, 188, 89, 21, 180, 188, 112, 80, 219, 59, 72, 139, 243, 187, 18, 230, 0, 189, 139, 71, 27, 189, 45, 120, 46, 61, 59, 121, 42, 61, 66, 179, 199, 60, 160, 249, 33, 188, 128, 23, 91, 188, 122, 59, 205, 60, 111, 86, 194, 188, 74, 83, 150, 188, 116, 54, 46, 60, 54, 130, 186, 60, 0, 238, 229, 188, 96, 218, 203, 188, 177, 241, 143, 188, 230, 92, 165, 60, 218, 140, 130, 60, 16, 167, 137, 187, 0, 131, 198, 186, 192, 106, 209, 186, 175, 240, 131, 188, 96, 2, 156, 187, 147, 128, 4, 61, 32, 19, 157, 59, 148, 15, 39, 188, 64, 203, 150, 60, 130, 53, 225, 60, 72, 48, 181, 187, 107, 165, 42, 61, 111, 18, 221, 188, 182, 108, 174, 60, 130, 176, 9, 189, 16, 142, 77, 188, 32, 255, 168, 188, 158, 183, 175, 60, 72, 99, 42, 189, 206, 97, 148, 188, 193, 68, 31, 61, 146, 40, 141, 188, 88, 2, 38, 188, 160, 255, 130, 59, 3, 113, 15, 61, 126, 168, 150, 60, 128, 70, 214, 185, 238, 76, 187, 60, 192, 134, 155, 60, 23, 100, 15, 189, 249, 104, 4, 61, 230, 243, 184, 60, 168, 39, 252, 59, 140, 78, 28, 60, 83, 95, 144, 188, 120, 118, 239, 188, 82, 105, 233, 60, 201, 90, 179, 188, 92, 181, 20, 60, 23, 111, 23, 61, 151, 198, 12, 61, 140, 46, 31, 189, 82, 177, 199, 60, 214, 12, 214, 60, 59, 208, 25, 61, 24, 167, 158, 59, 176, 183, 151, 59, 175, 110, 26, 61, 148, 132, 255, 188, 136, 102, 3, 188, 230, 244, 28, 189, 110, 221, 161, 60, 126, 17, 201, 60, 24, 95, 206, 188, 106, 109, 224, 60, 108, 108, 53, 188, 15, 107, 166, 188, 204, 101, 4, 188, 192, 222, 165, 58, 36, 79, 17, 189, 40, 124, 167, 187, 82, 28, 191, 60, 222, 108, 191, 60, 142, 230, 167, 60, 6, 42, 163, 60, 127, 220, 33, 61, 142, 21, 253, 60, 208, 3, 121, 60, 172, 205, 65, 60, 149, 135, 1, 189, 119, 128, 46, 61, 120, 39, 221, 59, 192, 130, 3, 188, 240, 69, 133, 60, 166, 158, 173, 60, 148, 127, 148, 60, 185, 171, 218, 188, 170, 59, 211, 188, 208, 174, 237, 187, 167, 37, 13, 189, 99, 210, 21, 61, 80, 209, 125, 60, 144, 21, 136, 59, 151, 150, 32, 61, 198, 231, 206, 60, 106, 66, 186, 60, 25, 198, 4, 61, 69, 12, 22, 189, 154, 74, 208, 60, 49, 36, 39, 189, 142, 103, 162, 188, 168, 99, 213, 188, 136, 160, 131, 60, 56, 0, 205, 188, 251, 147, 14, 189, 232, 225, 168, 187, 18, 126, 217, 60, 110, 127, 196, 60, 236, 107, 9, 189, 136, 58, 220, 187, 196, 176, 36, 189, 201, 85, 42, 61, 46, 112, 157, 188, 155, 45, 5, 61, 219, 92, 31, 61, 88, 201, 99, 188, 13, 156, 15, 189, 13, 84, 193, 188, 139, 186, 42, 189, 133, 147, 241, 188, 158, 59, 225, 60, 91, 77, 35, 61, 0, 114, 199, 186, 248, 25, 60, 60, 37, 241, 160, 188, 176, 62, 169, 187, 20, 247, 7, 189, 81, 143, 41, 61, 66, 115, 145, 60, 182, 18, 247, 60, 65, 2, 4, 61, 62, 235, 189, 60, 64, 212, 94, 60, 248, 164, 253, 187, 54, 58, 237, 60, 200, 135, 176, 187, 127, 165, 140, 188, 111, 207, 11, 61, 199, 59, 134, 188, 252, 68, 42, 188, 224, 138, 133, 188, 90, 210, 171, 60, 72, 70, 162, 59, 169, 55, 6, 61, 128, 50, 129, 57, 194, 71, 206, 60, 25, 167, 223, 188, 40, 54, 213, 187, 6, 162, 224, 188, 24, 150, 61, 60, 38, 65, 244, 188, 198, 183, 168, 60, 48, 208, 45, 189, 96, 218, 15, 59, 164, 53, 10, 189, 40, 208, 221, 59, 206, 92, 164, 60, 235, 73, 28, 189, 58, 132, 224, 60, 135, 213, 9, 61, 250, 127, 163, 60, 118, 175, 184, 60, 246, 126, 150, 188, 50, 254, 197, 60, 224, 60, 31, 59, 204, 208, 205, 188, 2, 163, 192, 60, 34, 102, 13, 189, 128, 180, 113, 186, 134, 41, 240, 60, 71, 154, 31, 189, 96, 71, 107, 59, 191, 44, 10, 61, 219, 49, 19, 61, 86, 3, 141, 60, 99, 12, 28, 61, 117, 247, 208, 188, 175, 58, 13, 61, 64, 91, 123, 186, 77, 136, 43, 61, 5, 242, 3, 189, 252, 82, 73, 60, 120, 169, 241, 59, 90, 90, 174, 60, 81, 242, 9, 61, 204, 214, 143, 60, 128, 39, 212, 185, 45, 249, 34, 61, 43, 212, 21, 61, 96, 52, 195, 188, 192, 146, 224, 186, 130, 231, 170, 60, 20, 176, 107, 188, 242, 169, 130, 60, 16, 52, 158, 188, 105, 30, 37, 189, 70, 108, 195, 60, 139, 2, 28, 61, 26, 116, 27, 189, 56, 223, 84, 188, 62, 162, 255, 60, 0, 69, 3, 189, 32, 18, 114, 188, 124, 229, 248, 188, 248, 128, 238, 59, 61, 248, 14, 61, 218, 10, 158, 60, 154, 197, 130, 188, 30, 188, 172, 60, 10, 129, 168, 60, 157, 215, 9, 189, 240, 77, 68, 187, 70, 33, 212, 60, 96, 164, 43, 187, 81, 196, 199, 188, 192, 162, 1, 189, 206, 94, 233, 188, 96, 229, 44, 59, 13, 98, 2, 61, 139, 66, 38, 61, 120, 47, 176, 188, 224, 166, 7, 189, 210, 2, 207, 60, 128, 212, 208, 187, 150, 193, 253, 188, 206, 253, 242, 188, 134, 1, 237, 60, 192, 25, 3, 60, 222, 138, 188, 60, 24, 69, 186, 187, 104, 68, 237, 188, 248, 243, 1, 60, 38, 191, 170, 60, 160, 10, 240, 59, 215, 252, 8, 61, 249, 249, 23, 189, 196, 68, 27, 60, 4, 136, 87, 188, 226, 96, 184, 60, 236, 22, 113, 60, 0, 32, 126, 183, 182, 109, 184, 188, 2, 89, 27, 189, 192, 213, 126, 58, 216, 199, 208, 187, 28, 132, 93, 188, 219, 166, 19, 61, 15, 5, 35, 61, 187, 250, 139, 188, 238, 26, 220, 60, 212, 86, 157, 188, 4, 249, 86, 60, 254, 228, 197, 60, 128, 182, 133, 187, 241, 87, 199, 188, 138, 213, 147, 60, 63, 76, 27, 189, 88, 142, 212, 59, 28, 208, 82, 60, 112, 45, 174, 187, 18, 101, 219, 60, 208, 207, 157, 188, 247, 254, 9, 189, 233, 81, 45, 61, 39, 171, 42, 189, 130, 176, 11, 189, 206, 236, 241, 60, 121, 150, 6, 61, 193, 96, 10, 189, 166, 169, 96, 188, 6, 149, 255, 60, 138, 222, 19, 189, 8, 129, 144, 59, 80, 84, 34, 187, 88, 199, 182, 187, 72, 225, 39, 188, 67, 183, 39, 189, 134, 129, 203, 60, 228, 242, 51, 60, 203, 106, 18, 189, 240, 219, 13, 187, 178, 222, 209, 60, 174, 167, 134, 60, 208, 198, 184, 59, 236, 67, 162, 188, 108, 132, 173, 188, 242, 195, 76, 188, 0, 211, 100, 186, 250, 28, 168, 60, 84, 86, 164, 188, 232, 150, 153, 59, 96, 67, 50, 59, 142, 247, 119, 188, 176, 175, 6, 188, 150, 95, 90, 188, 220, 22, 11, 189, 245, 38, 148, 188, 73, 48, 36, 61, 246, 9, 199, 60, 5, 23, 240, 188, 92, 236, 107, 60, 124, 41, 92, 188, 248, 215, 86, 60, 226, 48, 222, 60, 144, 70, 155, 60, 162, 19, 138, 188, 77, 175, 27, 189, 208, 1, 135, 187, 8, 163, 153, 188, 239, 118, 137, 188, 90, 103, 63, 188, 136, 89, 140, 60, 132, 92, 141, 60, 232, 96, 239, 187, 150, 97, 199, 60, 32, 157, 49, 187, 160, 144, 243, 58, 21, 94, 24, 61, 215, 104, 43, 61, 136, 58, 93, 60, 91, 124, 192, 188, 40, 191, 23, 60, 86, 175, 108, 188, 22, 244, 79, 188, 134, 58, 248, 60, 117, 75, 7, 61, 102, 44, 42, 189, 250, 224, 210, 60, 186, 221, 135, 188, 208, 154, 75, 187, 175, 244, 141, 188, 62, 38, 27, 189, 138, 195, 153, 60, 64, 176, 96, 58, 192, 117, 226, 188, 176, 1, 178, 187, 166, 65, 248, 60, 240, 66, 121, 187, 69, 182, 19, 61, 21, 163, 14, 189, 184, 157, 12, 188, 218, 8, 215, 60, 144, 186, 22, 189, 48, 198, 179, 59, 96, 216, 23, 188, 151, 237, 28, 61, 238, 228, 191, 60, 0, 180, 175, 56, 13, 128, 27, 189, 92, 53, 93, 188, 24, 12, 9, 60, 202, 59, 11, 189, 152, 77, 26, 189, 234, 48, 205, 188, 116, 189, 63, 188, 204, 61, 20, 189, 203, 240, 5, 61, 92, 145, 8, 188, 128, 85, 140, 57, 128, 210, 195, 58, 210, 75, 33, 189, 202, 213, 224, 60, 128, 47, 254, 187, 164, 2, 2, 60, 52, 90, 151, 188, 178, 115, 176, 60, 36, 122, 22, 189, 40, 54, 42, 189, 179, 83, 35, 61, 138, 136, 222, 188, 64, 31, 99, 187, 13, 230, 26, 189, 186, 62, 36, 189, 82, 92, 224, 60, 20, 220, 135, 60, 164, 225, 5, 188, 48, 105, 44, 188, 76, 21, 32, 60, 210, 157, 231, 60, 2, 138, 128, 188, 64, 224, 45, 187, 238, 216, 128, 60, 242, 123, 227, 60, 45, 90, 14, 61, 112, 211, 41, 189, 48, 38, 21, 189, 181, 175, 27, 61, 196, 63, 79, 188, 224, 208, 230, 58, 82, 45, 211, 188, 21, 177, 16, 61, 192, 107, 211, 186, 103, 156, 23, 61, 144, 84, 98, 60, 172, 72, 216, 188, 166, 132, 144, 60, 64, 234, 194, 186, 34, 73, 164, 60, 219, 85, 1, 61, 9, 229, 19, 61, 190, 111, 192, 60, 5, 87, 4, 61, 46, 60, 144, 60, 245, 79, 40, 61, 80, 81, 143, 188, 0, 205, 182, 185, 52, 14, 13, 189, 128, 17, 84, 188, 114, 34, 142, 60, 124, 46, 76, 188, 112, 117, 85, 59, 82, 209, 248, 60, 46, 140, 205, 60, 9, 86, 33, 61, 16, 188, 34, 189, 192, 24, 83, 187, 102, 230, 212, 188, 130, 162, 186, 60, 231, 154, 4, 61, 52, 218, 24, 60, 14, 59, 108, 188, 150, 49, 194, 60, 36, 103, 193, 188, 236, 112, 40, 188, 64, 31, 73, 58, 165, 132, 21, 61, 245, 79, 34, 189, 153, 160, 211, 188, 113, 3, 8, 189, 50, 194, 20, 189, 35, 150, 230, 188, 208, 121, 155, 187, 26, 170, 228, 60, 170, 168, 136, 60, 208, 199, 203, 187, 193, 107, 0, 61, 202, 127, 215, 60, 40, 220, 34, 60, 176, 157, 12, 189, 189, 16, 9, 189, 3, 66, 42, 61, 102, 174, 242, 60, 232, 203, 221, 188, 108, 223, 229, 188, 235, 22, 195, 188, 203, 220, 251, 188, 180, 26, 95, 188, 242, 231, 169, 60, 196, 73, 3, 60, 175, 228, 39, 189, 64, 29, 251, 188, 85, 231, 13, 61, 177, 179, 132, 188, 96, 239, 243, 187, 248, 128, 142, 188, 251, 103, 39, 189, 6, 255, 250, 60, 188, 137, 38, 188, 78, 253, 185, 60, 136, 233, 158, 59, 216, 121, 226, 59, 77, 2, 162, 188, 208, 169, 9, 188, 96, 111, 111, 187, 61, 28, 23, 189, 90, 10, 233, 60, 121, 129, 24, 189, 26, 30, 165, 60, 223, 10, 20, 189, 196, 88, 194, 188, 46, 236, 223, 188, 122, 75, 131, 60, 100, 151, 40, 188, 57, 50, 27, 189, 16, 114, 53, 60, 54, 6, 180, 60, 32, 72, 41, 188, 131, 177, 34, 61, 112, 199, 156, 59, 169, 254, 200, 188, 98, 25, 152, 188, 248, 170, 198, 59, 160, 65, 35, 187, 128, 255, 152, 59, 127, 88, 27, 61, 228, 252, 112, 188, 106, 60, 221, 60, 42, 245, 132, 188, 16, 62, 97, 59, 14, 0, 40, 189, 136, 95, 200, 187, 120, 228, 233, 187, 36, 15, 65, 60, 128, 71, 15, 59, 16, 125, 13, 59, 130, 47, 160, 60, 192, 14, 134, 187, 64, 128, 195, 59, 141, 250, 148, 188, 168, 84, 144, 188, 140, 88, 17, 189, 192, 210, 15, 186, 97, 144, 5, 61, 184, 219, 203, 187, 164, 101, 23, 189, 56, 105, 147, 187, 144, 102, 42, 189, 117, 202, 144, 188, 192, 55, 69, 188, 162, 39, 248, 60, 106, 235, 115, 188, 216, 71, 67, 188, 165, 108, 31, 61, 15, 103, 12, 61, 240, 2, 50, 60, 248, 77, 106, 60, 160, 111, 5, 60, 158, 231, 238, 188, 32, 169, 145, 59, 77, 93, 19, 61, 211, 200, 199, 188, 96, 31, 226, 59, 121, 178, 1, 61, 81, 163, 130, 188, 118, 155, 212, 60, 187, 90, 6, 61, 108, 143, 2, 188, 232, 234, 156, 60, 145, 97, 34, 61, 58, 201, 246, 60, 128, 163, 57, 58, 174, 162, 246, 60, 0, 72, 137, 187, 9, 102, 2, 189, 197, 78, 41, 189, 128, 47, 83, 187, 208, 242, 235, 187, 50, 139, 171, 60, 135, 37, 14, 61, 105, 123, 20, 189, 197, 249, 24, 61, 180, 18, 44, 188, 62, 13, 4, 189, 94, 52, 122, 188, 154, 242, 156, 60, 106, 249, 185, 60, 233, 252, 6, 189, 42, 217, 146, 60, 48, 165, 1, 59, 32, 200, 187, 59, 7, 226, 32, 61, 126, 76, 13, 189, 134, 99, 240, 60, 6, 239, 166, 60, 166, 160, 154, 188, 192, 227, 139, 187, 196, 109, 51, 188, 254, 105, 176, 188, 224, 156, 107, 60, 162, 0, 178, 188, 9, 10, 39, 61, 210, 50, 211, 60, 225, 20, 39, 61, 122, 229, 213, 60, 253, 17, 19, 189, 36, 101, 168, 188, 122, 232, 195, 60, 199, 253, 3, 189, 124, 176, 96, 60, 48, 82, 240, 188, 240, 14, 230, 188, 80, 51, 14, 59, 24, 49, 239, 59, 104, 50, 5, 188, 175, 26, 209, 188, 117, 240, 227, 188, 132, 211, 87, 60, 208, 54, 44, 60, 89, 203, 197, 188, 222, 190, 217, 188, 164, 93, 220, 188, 238, 164, 139, 188, 141, 82, 12, 61, 192, 222, 40, 188, 156, 225, 160, 60, 221, 21, 0, 61, 111, 180, 219, 188, 78, 245, 212, 60, 31, 86, 11, 189, 65, 227, 35, 61, 170, 237, 100, 188, 80, 233, 12, 59, 55, 113, 1, 189, 237, 187, 192, 188, 217, 164, 29, 61, 130, 74, 196, 188, 2, 175, 119, 188, 250, 177, 197, 60, 115, 198, 26, 61, 250, 80, 231, 60, 144, 12, 9, 59, 179, 157, 200, 188, 17, 171, 9, 61, 193, 246, 0, 189, 35, 22, 25, 189, 208, 202, 17, 59, 149, 176, 38, 189, 157, 99, 34, 61, 140, 164, 58, 188, 24, 205, 132, 187, 190, 124, 175, 60, 149, 123, 174, 188, 24, 157, 30, 60, 230, 214, 209, 60, 202, 157, 242, 188, 173, 201, 30, 189, 32, 94, 16, 189, 98, 180, 184, 60, 55, 60, 15, 189, 98, 9, 20, 189, 104, 132, 241, 188, 232, 160, 130, 187, 116, 78, 215, 188, 72, 240, 181, 188, 3, 120, 20, 61, 62, 164, 174, 60, 132, 237, 21, 188, 131, 48, 16, 189, 195, 198, 23, 61, 39, 31, 7, 61, 187, 217, 26, 189, 202, 45, 220, 60, 248, 173, 229, 187, 83, 139, 38, 61, 240, 238, 61, 188, 28, 132, 150, 188, 94, 102, 165, 60, 48, 108, 206, 59, 144, 169, 88, 59, 50, 152, 161, 60, 32, 59, 21, 188, 144, 29, 220, 59, 222, 219, 169, 188, 114, 79, 168, 188, 248, 148, 198, 59, 154, 35, 136, 60, 192, 205, 176, 186, 125, 59, 14, 61, 66, 183, 183, 60, 20, 47, 9, 189, 239, 170, 202, 188, 96, 185, 49, 187, 62, 59, 11, 189, 2, 231, 201, 60, 135, 180, 28, 61, 226, 215, 244, 60, 7, 232, 24, 61, 43, 4, 13, 189, 60, 235, 15, 189, 255, 191, 191, 188, 203, 194, 2, 189, 57, 40, 33, 61, 130, 65, 23, 189, 3, 37, 136, 188, 30, 77, 230, 188, 157, 245, 17, 189, 0, 157, 147, 186, 204, 118, 2, 60, 48, 194, 199, 59, 206, 170, 249, 60, 128, 75, 170, 186, 240, 145, 99, 188, 22, 57, 196, 188, 135, 248, 218, 188, 159, 103, 200, 188, 96, 242, 72, 60, 136, 198, 219, 59, 202, 246, 130, 60, 192, 228, 146, 60, 64, 135, 132, 188, 204, 222, 120, 60, 33, 182, 20, 189, 106, 153, 149, 60, 167, 191, 38, 189, 67, 163, 246, 188, 128, 102, 249, 58, 174, 152, 236, 60, 101, 94, 26, 61, 232, 83, 42, 188, 222, 236, 251, 188, 189, 21, 5, 189, 208, 68, 154, 187, 220, 5, 114, 60, 64, 167, 111, 59, 96, 156, 18, 188, 96, 86, 79, 187, 22, 233, 158, 60, 16, 212, 249, 187, 132, 69, 1, 188, 239, 203, 20, 61, 64, 190, 118, 187, 202, 108, 217, 60, 162, 44, 183, 60, 80, 46, 100, 60, 139, 89, 25, 61, 146, 129, 110, 188, 226, 219, 163, 60, 168, 30, 37, 60, 142, 126, 156, 60, 156, 53, 57, 188, 72, 24, 50, 188, 0, 205, 19, 59, 42, 212, 200, 60, 199, 11, 35, 61, 214, 176, 18, 189, 88, 114, 215, 59, 132, 25, 40, 189, 99, 69, 189, 188, 32, 115, 246, 59, 184, 250, 83, 60, 230, 112, 206, 60, 84, 249, 60, 60, 252, 37, 2, 189, 36, 167, 119, 60, 108, 162, 40, 189, 218, 100, 209, 60, 72, 202, 243, 188, 140, 158, 213, 188, 48, 239, 229, 59, 0, 211, 100, 187, 136, 161, 36, 60, 122, 20, 234, 60, 114, 56, 180, 60, 70, 241, 103, 188, 16, 218, 189, 187, 192, 146, 77, 186, 76, 0, 13, 60, 180, 141, 91, 188, 132, 74, 53, 188, 151, 203, 166, 188, 192, 141, 146, 186, 220, 194, 147, 60, 202, 216, 246, 60, 40, 177, 227, 187, 4, 165, 141, 188, 26, 36, 137, 188, 192, 21, 103, 186, 55, 73, 203, 188, 64, 211, 59, 187, 128, 55, 183, 57, 166, 164, 245, 60, 63, 170, 5, 61, 108, 105, 131, 60, 165, 37, 43, 61, 122, 47, 175, 188, 148, 102, 135, 188, 51, 135, 16, 189, 160, 114, 156, 186, 164, 13, 153, 60, 83, 103, 7, 61, 174, 84, 231, 60, 35, 21, 0, 61, 240, 132, 22, 60, 90, 187, 193, 60, 184, 191, 35, 188, 192, 95, 15, 58, 62, 227, 216, 60, 228, 162, 1, 189, 79, 149, 151, 188, 114, 53, 184, 60, 62, 88, 223, 188, 40, 228, 62, 188, 47, 28, 136, 188, 65, 104, 8, 61, 182, 121, 205, 60, 206, 201, 22, 189, 224, 166, 28, 60, 197, 229, 10, 61, 230, 177, 202, 60, 88, 40, 119, 60, 152, 23, 90, 188, 56, 76, 74, 188, 198, 109, 238, 60, 128, 253, 45, 187, 230, 143, 0, 189, 54, 87, 3, 189, 225, 221, 199, 188, 158, 101, 224, 60, 56, 29, 32, 188, 45, 240, 17, 61, 150, 242, 174, 60, 102, 86, 232, 188, 237, 225, 0, 61, 192, 132, 235, 188, 136, 34, 74, 60, 110, 115, 197, 60, 0, 73, 122, 186, 76, 46, 94, 188, 120, 226, 60, 60, 248, 142, 108, 60, 208, 116, 52, 60, 250, 217, 176, 60, 237, 119, 44, 61, 144, 49, 208, 188, 148, 127, 117, 60, 145, 219, 33, 61, 142, 73, 143, 60, 84, 108, 10, 189, 0, 90, 173, 184, 7, 77, 34, 61, 232, 179, 0, 189, 118, 194, 220, 60, 0, 5, 125, 59, 98, 163, 218, 60, 32, 94, 60, 59, 208, 18, 14, 59, 134, 105, 192, 60, 208, 127, 225, 188, 203, 122, 32, 189, 160, 42, 28, 187, 105, 138, 43, 61, 70, 196, 113, 188, 0, 242, 222, 56, 160, 192, 44, 187, 204, 98, 22, 189, 165, 185, 153, 188, 160, 170, 103, 187, 224, 45, 34, 189, 168, 71, 128, 60, 234, 241, 190, 60, 163, 136, 42, 61, 94, 9, 105, 188, 126, 131, 182, 188, 152, 124, 192, 187, 153, 218, 46, 189, 13, 61, 32, 189, 249, 168, 20, 189, 98, 158, 42, 189, 137, 108, 17, 189, 72, 253, 42, 188, 46, 47, 67, 188, 91, 125, 19, 61, 17, 201, 7, 61, 83, 178, 2, 61, 198, 119, 190, 60, 166, 166, 186, 60, 61, 198, 46, 61, 152, 135, 12, 189, 78, 72, 154, 60, 248, 106, 40, 188, 164, 11, 152, 60, 16, 186, 28, 60, 104, 210, 127, 188, 36, 177, 15, 188, 100, 77, 172, 188, 226, 193, 233, 188, 12, 144, 59, 188, 48, 41, 243, 59, 27, 205, 44, 61, 194, 9, 26, 189, 54, 190, 174, 188, 100, 8, 32, 189, 16, 177, 166, 188, 248, 244, 117, 188, 184, 103, 53, 60, 152, 195, 152, 60, 188, 152, 0, 189, 184, 52, 196, 187, 66, 154, 200, 188, 128, 199, 180, 186, 16, 18, 103, 60, 129, 196, 25, 61, 18, 73, 204, 60, 86, 1, 158, 60, 21, 165, 27, 189, 118, 98, 195, 188, 143, 86, 134, 188, 219, 25, 164, 188, 168, 50, 26, 60, 214, 240, 242, 60, 148, 57, 182, 188, 61, 118, 0, 61, 166, 48, 207, 60, 188, 146, 80, 60, 174, 208, 186, 60, 198, 238, 168, 60, 116, 16, 14, 60, 29, 182, 1, 61, 195, 11, 40, 61, 161, 2, 13, 189, 163, 55, 214, 188, 110, 167, 172, 60, 34, 144, 14, 189, 0, 69, 157, 188, 56, 116, 249, 187, 233, 77, 6, 61, 92, 71, 52, 188, 210, 243, 243, 60, 82, 205, 234, 60, 110, 134, 205, 60, 194, 31, 212, 188, 234, 221, 220, 60, 133, 12, 30, 61, 100, 197, 33, 189, 152, 255, 46, 188, 186, 205, 38, 189, 254, 82, 242, 60, 64, 121, 62, 59, 176, 241, 24, 60, 0, 111, 114, 187, 40, 113, 126, 60, 222, 56, 164, 60, 20, 209, 14, 60, 251, 204, 166, 188, 68, 181, 161, 188, 192, 226, 1, 59, 87, 213, 180, 188, 242, 195, 4, 189, 48, 141, 22, 60, 70, 246, 245, 188, 64, 60, 26, 186, 34, 237, 183, 60, 196, 73, 52, 188, 195, 24, 27, 61, 90, 63, 180, 60, 160, 232, 73, 187, 136, 56, 209, 187, 196, 152, 226, 188, 64, 20, 100, 186, 144, 240, 18, 59, 86, 228, 183, 60, 154, 195, 216, 60, 202, 78, 167, 60, 84, 116, 73, 188, 124, 115, 92, 188, 182, 133, 115, 188, 56, 60, 201, 188, 112, 71, 36, 59, 238, 31, 240, 60, 22, 1, 173, 60, 32, 143, 238, 58, 185, 255, 26, 61, 48, 185, 146, 60, 192, 93, 127, 59, 244, 209, 61, 60, 241, 32, 37, 189, 147, 94, 140, 188, 55, 230, 41, 189, 148, 109, 93, 60, 178, 119, 239, 60, 98, 42, 188, 60, 208, 176, 86, 60, 84, 27, 3, 189, 112, 108, 81, 187, 0, 41, 37, 188, 136, 111, 214, 188, 80, 132, 28, 189, 38, 136, 4, 189, 192, 33, 52, 60, 64, 157, 150, 60, 240, 121, 24, 60, 44, 74, 242, 188, 142, 139, 208, 60, 184, 45, 245, 187, 96, 249, 169, 58, 80, 254, 8, 189, 192, 26, 27, 187, 192, 130, 31, 188, 72, 244, 145, 59, 127, 77, 5, 61, 47, 95, 11, 189, 80, 177, 211, 188, 223, 148, 35, 189, 245, 21, 20, 61, 104, 177, 201, 187, 236, 22, 144, 60, 112, 118, 116, 188, 170, 123, 186, 60, 183, 87, 22, 189, 0, 209, 165, 187, 224, 125, 201, 59, 151, 153, 241, 188, 219, 232, 174, 188, 42, 134, 210, 60, 0, 152, 64, 184, 241, 112, 38, 61, 48, 92, 80, 187, 177, 135, 22, 189, 30, 149, 249, 60, 174, 103, 113, 188, 144, 85, 245, 187, 85, 150, 16, 189, 172, 171, 47, 188, 8, 199, 155, 59, 128, 50, 165, 59, 214, 146, 223, 60, 149, 30, 186, 188, 88, 162, 129, 60, 163, 103, 128, 188, 22, 182, 15, 189, 10, 43, 186, 60, 240, 146, 198, 187, 202, 15, 255, 60, 142, 8, 109, 188, 93, 214, 166, 188, 241, 33, 222, 188, 32, 159, 231, 58, 80, 187, 90, 59, 249, 93, 3, 61, 144, 247, 25, 188, 228, 73, 100, 60, 238, 224, 3, 189, 62, 183, 132, 60, 71, 138, 37, 61, 134, 97, 231, 60, 120, 26, 140, 59, 44, 99, 160, 188, 52, 28, 152, 60, 71, 138, 8, 189, 152, 53, 164, 187, 16, 60, 230, 187, 202, 59, 203, 60, 34, 135, 161, 60, 64, 224, 13, 59, 192, 249, 75, 58, 4, 238, 183, 188, 207, 229, 42, 61, 237, 40, 194, 188, 156, 153, 5, 188, 184, 73, 200, 59, 58, 196, 35, 189, 155, 132, 33, 61, 108, 72, 69, 188, 220, 168, 98, 60, 97, 248, 11, 61, 161, 140, 31, 189, 221, 214, 16, 61, 160, 134, 61, 188, 96, 66, 199, 59, 207, 84, 22, 61, 168, 84, 224, 187, 255, 72, 40, 61, 40, 112, 138, 59, 39, 249, 46, 189, 24, 78, 240, 59, 192, 183, 169, 186, 120, 205, 117, 188, 36, 193, 111, 60, 96, 8, 86, 188, 197, 65, 17, 61, 210, 162, 225, 60, 196, 180, 20, 60, 213, 96, 153, 188, 52, 219, 15, 189, 168, 61, 77, 60, 192, 157, 203, 58, 206, 170, 186, 60, 117, 124, 140, 188, 204, 35, 124, 60, 96, 152, 175, 59, 0, 248, 239, 58, 218, 93, 158, 188, 152, 37, 92, 188, 232, 138, 64, 60, 166, 204, 10, 189, 114, 22, 241, 60, 211, 26, 8, 61, 0, 159, 37, 189, 8, 212, 91, 188, 112, 31, 220, 188, 78, 177, 252, 60, 64, 163, 165, 186, 84, 3, 164, 188, 128, 238, 76, 186, 128, 87, 25, 59, 148, 246, 222, 188, 221, 149, 32, 189, 80, 123, 31, 60, 82, 129, 110, 188, 176, 189, 157, 187, 173, 172, 44, 61, 79, 233, 3, 61, 14, 91, 173, 60, 143, 2, 38, 61, 64, 49, 129, 187, 199, 98, 46, 61, 142, 110, 28, 189, 192, 57, 219, 186, 121, 213, 35, 61, 70, 191, 183, 60, 127, 245, 137, 188, 208, 118, 121, 188, 152, 115, 70, 188, 98, 62, 144, 60, 24, 172, 47, 60, 116, 177, 26, 60, 252, 204, 98, 188, 44, 156, 73, 188, 68, 165, 5, 60, 208, 86, 230, 187, 126, 203, 135, 60, 97, 195, 138, 188, 19, 177, 161, 188, 128, 26, 230, 185, 148, 178, 12, 60, 49, 170, 15, 189, 12, 113, 166, 188, 60, 200, 43, 189, 110, 134, 14, 189, 216, 146, 110, 188, 18, 13, 5, 189, 208, 61, 92, 187, 244, 231, 42, 60, 15, 192, 15, 61, 224, 91, 161, 60, 216, 253, 193, 59, 2, 96, 216, 60, 62, 13, 138, 188, 248, 19, 65, 188, 221, 206, 202, 188, 65, 226, 236, 188, 184, 146, 33, 60, 255, 46, 14, 61, 57, 42, 207, 188, 41, 239, 38, 189, 73, 184, 134, 188, 81, 70, 20, 61, 80, 68, 170, 187, 160, 151, 215, 59, 70, 212, 96, 188, 248, 16, 30, 188, 112, 221, 24, 189, 67, 77, 20, 61, 170, 113, 247, 60, 57, 236, 211, 188, 32, 222, 38, 188, 26, 144, 215, 60, 37, 239, 22, 61, 110, 9, 39, 189, 69, 192, 143, 188, 90, 136, 194, 60, 248, 242, 40, 60, 202, 137, 165, 60, 145, 97, 21, 61, 215, 20, 246, 188, 225, 135, 216, 188, 163, 135, 21, 61, 128, 190, 97, 59, 188, 135, 23, 189, 230, 76, 253, 60, 136, 98, 182, 188, 191, 42, 44, 61, 24, 130, 39, 189, 208, 67, 65, 60, 73, 153, 10, 61, 100, 156, 105, 188, 200, 99, 162, 59, 177, 38, 18, 189, 136, 100, 171, 59, 252, 80, 56, 188, 5, 230, 4, 189, 88, 23, 170, 187, 98, 91, 71, 188, 28, 219, 32, 60, 144, 135, 51, 59, 30, 218, 211, 188, 20, 57, 49, 60, 171, 192, 19, 61, 80, 114, 5, 189, 41, 46, 10, 189, 208, 171, 21, 59, 49, 223, 152, 188, 96, 186, 242, 187, 121, 85, 46, 189, 2, 87, 132, 188, 64, 154, 216, 187, 4, 30, 155, 60, 246, 209, 80, 188, 64, 172, 21, 60, 64, 14, 191, 186, 128, 47, 105, 188, 220, 190, 28, 189, 40, 127, 144, 59, 104, 54, 191, 188, 106, 172, 20, 189, 64, 12, 15, 58, 221, 185, 33, 61, 250, 68, 177, 60, 9, 69, 8, 61, 213, 112, 148, 188, 192, 15, 52, 58, 97, 72, 11, 61, 50, 53, 188, 60, 184, 97, 46, 188, 94, 204, 80, 188, 147, 112, 25, 189, 144, 76, 68, 187, 248, 177, 198, 187, 216, 73, 157, 59, 64, 221, 227, 59, 196, 7, 111, 60, 190, 216, 210, 60, 118, 112, 199, 60, 21, 107, 3, 61, 143, 104, 150, 188, 0, 190, 44, 57, 163, 62, 209, 188, 198, 240, 237, 60, 60, 134, 157, 60, 224, 108, 38, 187, 232, 189, 248, 59, 239, 199, 28, 189, 225, 35, 30, 61, 224, 43, 235, 186, 184, 154, 215, 188, 110, 23, 126, 188, 102, 84, 128, 60, 106, 255, 141, 60, 4, 145, 229, 188, 239, 243, 1, 61, 0, 205, 198, 57, 82, 237, 210, 60, 48, 241, 218, 59, 158, 53, 113, 188, 166, 221, 195, 60, 24, 125, 17, 188, 200, 223, 208, 187, 230, 134, 232, 60, 76, 34, 31, 189, 192, 130, 21, 187, 176, 242, 90, 188, 240, 132, 148, 59, 0, 147, 243, 58, 0, 139, 74, 58, 64, 40, 140, 59, 16, 109, 81, 60, 224, 169, 72, 59, 178, 237, 250, 60, 39, 54, 128, 188, 181, 212, 25, 61, 157, 1, 18, 189, 234, 83, 192, 188, 44, 86, 1, 189, 128, 42, 112, 186, 172, 205, 27, 189, 24, 228, 76, 60, 178, 12, 240, 188, 238, 17, 252, 60, 12, 7, 34, 60, 39, 127, 164, 188, 88, 56, 5, 188, 77, 159, 40, 61, 175, 112, 44, 189, 0, 97, 203, 185, 248, 234, 29, 189, 214, 133, 87, 188, 238, 189, 140, 188, 72, 207, 134, 187, 161, 108, 5, 189, 255, 164, 24, 61, 142, 117, 220, 60, 143, 74, 25, 189, 18, 238, 29, 189, 89, 206, 160, 188, 0, 202, 165, 184, 40, 106, 204, 59, 58, 53, 143, 188, 216, 251, 139, 60, 112, 0, 24, 60, 45, 205, 32, 61, 192, 194, 248, 186, 240, 62, 79, 59, 184, 98, 235, 188, 88, 30, 251, 187, 182, 106, 253, 60, 148, 114, 13, 188, 116, 63, 44, 60, 49, 30, 13, 61, 161, 52, 0, 61, 77, 83, 133, 188, 154, 48, 220, 188, 210, 96, 142, 60, 209, 123, 33, 61, 12, 26, 152, 60, 0, 150, 93, 59, 228, 248, 54, 188, 182, 100, 221, 60, 118, 138, 25, 189, 16, 26, 194, 187, 16, 152, 94, 60, 72, 128, 51, 188, 49, 92, 8, 189, 91, 27, 218, 188, 195, 85, 191, 188, 207, 194, 190, 188, 203, 129, 26, 189, 169, 101, 17, 61, 192, 178, 27, 189, 236, 242, 4, 60, 6, 228, 184, 188, 96, 7, 182, 187, 245, 6, 43, 61, 11, 114, 201, 188, 60, 159, 14, 189, 10, 135, 158, 60, 205, 89, 38, 189, 80, 67, 29, 189, 126, 181, 240, 60, 100, 194, 8, 188, 192, 21, 115, 60, 226, 110, 99, 188, 171, 169, 46, 61, 214, 37, 133, 60, 83, 174, 32, 61, 160, 171, 185, 186, 50, 170, 237, 188, 85, 35, 31, 61, 66, 156, 211, 188, 223, 226, 25, 61, 94, 94, 175, 60, 158, 157, 131, 60, 161, 230, 140, 188, 202, 92, 159, 60, 38, 163, 180, 188, 184, 188, 249, 59, 174, 45, 155, 60, 99, 181, 0, 61, 33, 11, 15, 61, 160, 204, 241, 59, 166, 29, 35, 189, 75, 180, 38, 189, 54, 99, 127, 188, 32, 75, 193, 58, 199, 107, 155, 188, 232, 43, 229, 59, 128, 49, 158, 60, 140, 131, 5, 188, 214, 78, 77, 188, 232, 15, 170, 59, 104, 77, 99, 60, 198, 102, 226, 60, 24, 192, 235, 187, 152, 149, 132, 188, 252, 139, 39, 188, 168, 213, 177, 187, 126, 161, 40, 189, 118, 248, 126, 188, 203, 237, 196, 188, 162, 155, 234, 60, 82, 246, 136, 60, 217, 251, 179, 188, 88, 67, 65, 60, 155, 227, 173, 188, 96, 209, 51, 188, 13, 204, 35, 61, 120, 252, 79, 60, 35, 232, 46, 189, 160, 235, 243, 188, 150, 129, 181, 60, 159, 175, 183, 188, 69, 75, 0, 61, 250, 248, 228, 188, 151, 215, 13, 61, 32, 24, 216, 59, 96, 160, 131, 59, 145, 55, 14, 189, 136, 220, 143, 187, 166, 111, 203, 188, 160, 13, 208, 59, 58, 71, 185, 60, 53, 148, 27, 61, 110, 247, 162, 60, 32, 62, 126, 187, 192, 52, 26, 59, 64, 33, 162, 188, 30, 198, 170, 188, 48, 169, 39, 188, 22, 95, 109, 188, 124, 186, 17, 188, 57, 195, 10, 61, 123, 118, 13, 61, 171, 148, 40, 61, 154, 245, 208, 60, 64, 238, 3, 186, 160, 119, 153, 58, 72, 226, 245, 59, 238, 231, 140, 60, 172, 153, 38, 60, 6, 109, 144, 60, 230, 126, 80, 188, 122, 80, 186, 60, 112, 114, 175, 59, 96, 116, 209, 59, 71, 108, 45, 189, 87, 147, 41, 61, 160, 84, 246, 58, 94, 54, 23, 189, 232, 66, 101, 60, 96, 147, 28, 60, 74, 221, 14, 189, 0, 214, 31, 189, 96, 105, 214, 59, 122, 208, 244, 60, 118, 134, 27, 189, 224, 235, 237, 187, 158, 111, 244, 188, 192, 33, 136, 58, 249, 240, 36, 61, 138, 47, 3, 189, 79, 126, 163, 188, 138, 243, 15, 189, 46, 38, 179, 60, 68, 223, 143, 188, 103, 73, 7, 189, 3, 16, 24, 189, 253, 29, 252, 188, 162, 51, 185, 60, 253, 171, 183, 188, 16, 9, 193, 187, 58, 46, 212, 60, 15, 107, 15, 61, 58, 191, 31, 189, 159, 170, 40, 61, 196, 114, 11, 60, 38, 170, 254, 60, 41, 65, 11, 61, 133, 100, 0, 61, 216, 195, 42, 189, 192, 3, 147, 58, 52, 46, 59, 60, 56, 227, 254, 187, 31, 108, 34, 61, 54, 118, 213, 188, 254, 158, 137, 60, 167, 232, 23, 61, 213, 223, 17, 189, 115, 252, 233, 188, 236, 19, 25, 188, 46, 156, 246, 60, 33, 224, 4, 61, 61, 9, 165, 188, 134, 4, 203, 60, 80, 222, 52, 60, 248, 158, 129, 60, 4, 224, 29, 189, 248, 206, 134, 60, 64, 196, 159, 60, 78, 32, 211, 60, 114, 6, 28, 189, 154, 21, 164, 60, 239, 45, 252, 188, 222, 108, 173, 188, 193, 245, 175, 188, 200, 103, 163, 187, 206, 7, 18, 189, 118, 122, 209, 60, 26, 188, 155, 60, 122, 240, 239, 188, 6, 23, 145, 60, 216, 167, 176, 59, 94, 17, 134, 60, 213, 59, 9, 61, 45, 7, 182, 188, 141, 112, 38, 61, 198, 37, 44, 189, 247, 105, 225, 188, 216, 255, 55, 60, 224, 109, 227, 188, 144, 105, 144, 60, 64, 123, 3, 59, 205, 179, 178, 188, 128, 238, 201, 58, 160, 93, 45, 189, 110, 74, 199, 60, 238, 134, 209, 60, 85, 46, 36, 61, 171, 98, 24, 189, 14, 35, 217, 60, 56, 170, 147, 59, 230, 164, 245, 188, 166, 133, 132, 60, 0, 15, 56, 59, 174, 197, 216, 60, 236, 114, 76, 60, 0, 191, 3, 186, 164, 189, 94, 60, 8, 152, 60, 60, 220, 13, 60, 60, 184, 6, 85, 60, 64, 83, 191, 186, 16, 208, 165, 59, 102, 111, 21, 189, 180, 248, 51, 188, 147, 94, 24, 61, 78, 6, 120, 188, 71, 7, 9, 61, 160, 30, 31, 59, 80, 79, 20, 59, 162, 132, 204, 60, 44, 229, 99, 188, 186, 176, 169, 60, 34, 215, 39, 189, 90, 208, 123, 188, 176, 78, 109, 187, 82, 246, 182, 188, 152, 124, 183, 187, 247, 204, 23, 61, 52, 176, 115, 60, 16, 93, 28, 59, 200, 78, 166, 59, 0, 178, 200, 184, 102, 26, 207, 60, 215, 185, 31, 61, 192, 200, 25, 186, 232, 25, 81, 60, 48, 5, 219, 59, 168, 226, 243, 59, 59, 232, 255, 188, 36, 53, 49, 60, 29, 137, 20, 189, 216, 49, 240, 188, 24, 29, 167, 188, 29, 243, 146, 188, 87, 94, 130, 188, 23, 78, 205, 188, 204, 199, 79, 60, 67, 232, 34, 61, 75, 197, 20, 189, 192, 96, 198, 58, 8, 244, 24, 189, 249, 93, 2, 61, 47, 153, 28, 61, 30, 163, 251, 60, 84, 70, 175, 188, 160, 167, 49, 188, 54, 131, 174, 60, 240, 123, 171, 188, 45, 15, 17, 61, 22, 230, 189, 188, 82, 162, 187, 60, 92, 32, 17, 188, 48, 85, 63, 188, 128, 172, 122, 188, 116, 205, 196, 188, 213, 131, 42, 61, 44, 58, 1, 189, 123, 18, 150, 188, 156, 234, 18, 60, 38, 23, 147, 60, 152, 192, 109, 60, 0, 180, 212, 56, 30, 97, 241, 188, 54, 181, 204, 60, 109, 113, 30, 61, 184, 52, 173, 59, 16, 46, 195, 187, 8, 138, 182, 59, 0, 34, 211, 187, 208, 192, 186, 187, 163, 133, 137, 188, 130, 141, 31, 189, 185, 255, 36, 61, 0, 136, 96, 60, 7, 16, 216, 188, 70, 176, 248, 60, 239, 116, 32, 61, 0, 136, 226, 56, 58, 166, 156, 188, 123, 172, 41, 61, 145, 205, 46, 61, 144, 205, 113, 59, 102, 142, 165, 60, 20, 112, 39, 188, 255, 23, 46, 61, 86, 51, 158, 60, 108, 131, 29, 60, 98, 105, 251, 60, 152, 175, 23, 188, 82, 138, 9, 189, 64, 174, 97, 187, 170, 173, 251, 60, 14, 191, 193, 188, 132, 55, 201, 188, 6, 35, 232, 60, 105, 44, 0, 61, 0, 248, 123, 59, 31, 73, 10, 61, 34, 14, 63, 188, 204, 146, 99, 60, 182, 208, 40, 189, 72, 41, 30, 60, 94, 80, 250, 188, 234, 63, 222, 60, 188, 187, 12, 60, 171, 95, 25, 61, 213, 78, 30, 189, 117, 41, 4, 61, 108, 211, 8, 189, 96, 116, 233, 188, 220, 100, 243, 188, 153, 184, 135, 188, 127, 75, 7, 189, 64, 100, 89, 186, 23, 79, 28, 189, 177, 66, 24, 189, 6, 88, 27, 189, 194, 214, 219, 60, 48, 33, 146, 188, 40, 17, 88, 60, 0, 70, 211, 56, 176, 117, 96, 59, 213, 41, 10, 189, 209, 201, 15, 189, 35, 168, 248, 188, 152, 124, 183, 59, 144, 12, 147, 187, 224, 176, 150, 186, 56, 51, 139, 60, 6, 127, 253, 188, 117, 89, 36, 189, 58, 241, 179, 60, 4, 47, 127, 60, 97, 5, 43, 189, 116, 230, 18, 60, 18, 182, 230, 188, 124, 249, 58, 188, 180, 63, 20, 60, 81, 201, 181, 188, 48, 79, 164, 188, 128, 18, 245, 188, 48, 41, 204, 59, 144, 102, 174, 187, 40, 188, 29, 189, 136, 111, 238, 188, 220, 50, 10, 188, 168, 105, 11, 60, 36, 55, 30, 60, 169, 197, 36, 189, 30, 242, 15, 189, 193, 174, 38, 61, 151, 130, 233, 188, 22, 237, 227, 60, 157, 69, 23, 61, 154, 166, 234, 60, 238, 65, 89, 188, 184, 29, 141, 187, 112, 255, 119, 59, 4, 18, 7, 60, 21, 191, 4, 189, 30, 107, 207, 60, 219, 161, 42, 61, 146, 248, 133, 60, 179, 72, 35, 61, 38, 73, 10, 189, 95, 1, 24, 189, 21, 213, 10, 61, 182, 144, 230, 60, 0, 80, 113, 60, 251, 46, 10, 61, 20, 174, 114, 60, 81, 201, 42, 61, 4, 108, 247, 188, 177, 207, 136, 188, 34, 163, 168, 60, 76, 228, 60, 60, 55, 83, 39, 189, 250, 28, 215, 60, 230, 189, 173, 60, 147, 216, 29, 189, 62, 197, 123, 188, 32, 158, 122, 60, 221, 92, 14, 61, 176, 214, 219, 59, 253, 63, 1, 61, 178, 54, 220, 188, 213, 42, 0, 61, 83, 38, 10, 61, 102, 134, 26, 189, 160, 151, 23, 187, 53, 234, 11, 61, 236, 212, 165, 188, 129, 118, 34, 61, 250, 213, 117, 188, 160, 143, 252, 187, 90, 129, 134, 60, 238, 88, 189, 60, 100, 58, 119, 60, 171, 135, 11, 189, 176, 5, 198, 187, 198, 114, 190, 60, 100, 159, 204, 188, 232, 226, 241, 188, 235, 213, 33, 61, 40, 181, 202, 187, 102, 9, 188, 60, 146, 243, 227, 60, 197, 2, 29, 61, 204, 154, 34, 60, 22, 33, 98, 188, 219, 187, 42, 61, 106, 43, 244, 188, 186, 244, 116, 188, 215, 7, 186, 188, 159, 154, 33, 61, 70, 85, 199, 60, 140, 159, 18, 189, 135, 134, 20, 189, 13, 73, 45, 61, 76, 133, 65, 188, 205, 235, 25, 189, 4, 210, 79, 188, 80, 109, 30, 187, 242, 147, 103, 188, 72, 145, 24, 188, 96, 152, 126, 187, 185, 98, 39, 189, 42, 246, 125, 188, 141, 201, 37, 61, 115, 125, 14, 61, 236, 200, 13, 188, 94, 214, 194, 188, 148, 234, 249, 188, 230, 177, 138, 60, 253, 107, 163, 188, 34, 150, 192, 60, 0, 58, 223, 188, 40, 128, 14, 60, 86, 25, 225, 188, 248, 134, 174, 187, 59, 28, 186, 188, 37, 121, 136, 188, 42, 57, 61, 188, 194, 226, 245, 60, 6, 73, 213, 188, 95, 147, 0, 61, 173, 215, 23, 61, 16, 45, 234, 187, 64, 242, 64, 58, 175, 152, 22, 189, 48, 85, 51, 60, 44, 69, 30, 189, 157, 190, 9, 61, 144, 31, 70, 187, 168, 166, 104, 60, 85, 88, 22, 61, 112, 163, 156, 59, 121, 2, 33, 189, 53, 49, 27, 61, 200, 239, 142, 187, 26, 230, 170, 60, 203, 19, 33, 61, 162, 211, 240, 188, 64, 46, 126, 58, 113, 79, 30, 61, 40, 157, 221, 188, 175, 228, 17, 189, 42, 7, 225, 60, 46, 173, 122, 188, 62, 61, 27, 189, 138, 123, 222, 60, 245, 201, 45, 189, 78, 142, 164, 60, 83, 168, 200, 188, 77, 246, 212, 188, 225, 231, 143, 188, 220, 111, 120, 60, 234, 221, 202, 188, 9, 143, 24, 189, 0, 165, 30, 58, 114, 191, 243, 188, 90, 89, 189, 60, 114, 151, 133, 60, 74, 79, 170, 60, 242, 162, 26, 189, 22, 109, 211, 60, 117, 89, 17, 189, 186, 152, 141, 188, 19, 20, 8, 61, 150, 151, 210, 60, 94, 75, 183, 60, 176, 50, 67, 60, 176, 251, 132, 59, 227, 55, 35, 61, 73, 68, 14, 189, 69, 138, 45, 61, 132, 145, 17, 188, 211, 117, 205, 188, 146, 118, 247, 60, 170, 45, 199, 188, 209, 25, 190, 188, 187, 204, 4, 61, 32, 142, 3, 189, 57, 50, 140, 188, 251, 128, 23, 61, 232, 58, 209, 59, 44, 64, 129, 60, 12, 87, 56, 188, 6, 47, 248, 188, 140, 75, 125, 188, 248, 195, 200, 187, 81, 40, 181, 188, 174, 20, 91, 188, 112, 130, 87, 59, 220, 91, 86, 60, 125, 170, 17, 189, 74, 109, 246, 60, 38, 180, 167, 60, 138, 129, 89, 188, 76, 151, 181, 188, 129, 106, 35, 189, 175, 158, 18, 61, 200, 129, 171, 187, 168, 165, 114, 188, 104, 196, 161, 59, 200, 32, 36, 189, 106, 183, 206, 188, 3, 4, 15, 61, 141, 133, 13, 61, 144, 29, 16, 189, 40, 171, 205, 188, 88, 30, 127, 188, 210, 209, 225, 60, 182, 99, 222, 188, 184, 214, 203, 188, 144, 121, 165, 188, 88, 119, 252, 59, 160, 8, 169, 58, 201, 12, 23, 61, 92, 26, 79, 60, 142, 58, 0, 189, 18, 112, 161, 60, 36, 182, 139, 60, 246, 225, 139, 60, 200, 81, 190, 59, 215, 197, 15, 61, 240, 181, 169, 187, 22, 175, 36, 189, 40, 198, 233, 188, 13, 130, 22, 61, 66, 104, 28, 189, 160, 221, 230, 58, 168, 21, 135, 60, 173, 16, 157, 188, 196, 54, 81, 188, 168, 193, 233, 187, 0, 189, 61, 60, 228, 224, 155, 60, 154, 23, 177, 188, 34, 61, 169, 60, 204, 52, 0, 189, 199, 207, 29, 61, 25, 17, 13, 61, 235, 226, 131, 188, 192, 189, 4, 187, 110, 65, 32, 189, 155, 110, 15, 189, 138, 16, 152, 60, 248, 63, 32, 60, 0, 165, 25, 186, 52, 110, 172, 188, 93, 99, 128, 188, 92, 121, 41, 189, 133, 174, 20, 61, 48, 138, 223, 59, 189, 60, 27, 189, 147, 22, 6, 61, 3, 169, 16, 61, 215, 45, 148, 188, 181, 62, 156, 188, 223, 222, 21, 189, 204, 111, 89, 188, 118, 13, 212, 60, 92, 143, 48, 60, 142, 19, 92, 188, 0, 62, 184, 187, 140, 182, 149, 60, 132, 149, 248, 188, 189, 25, 35, 189, 254, 70, 239, 60, 206, 59, 133, 60, 38, 114, 199, 188, 128, 66, 160, 57, 101, 21, 242, 188, 165, 38, 17, 61, 245, 118, 15, 61, 86, 71, 195, 60, 6, 139, 222, 60, 129, 242, 141, 188, 207, 201, 41, 61, 184, 132, 108, 188, 247, 210, 10, 61, 155, 234, 10, 61, 128, 163, 30, 189, 108, 50, 0, 189, 224, 15, 146, 186, 38, 4, 131, 60, 134, 253, 162, 60, 34, 70, 149, 188, 6, 237, 80, 188, 210, 122, 187, 60, 79, 66, 38, 61, 248, 224, 201, 59, 16, 174, 153, 60, 30, 132, 169, 60, 46, 43, 246, 60, 237, 248, 38, 61, 40, 97, 75, 188, 192, 64, 91, 60, 122, 20, 234, 60, 224, 2, 8, 189, 110, 178, 19, 189, 192, 217, 172, 187, 0, 16, 91, 57, 128, 98, 76, 186, 100, 86, 110, 60, 71, 157, 36, 61, 106, 215, 122, 188, 162, 210, 227, 60, 30, 6, 205, 188, 192, 60, 161, 188, 86, 254, 166, 188, 13, 61, 38, 61, 100, 91, 154, 188, 80, 47, 39, 59, 182, 50, 4, 189, 227, 127, 4, 61, 230, 244, 225, 60, 160, 51, 146, 187, 110, 56, 215, 60, 149, 213, 46, 61, 15, 114, 2, 61, 118, 50, 44, 189, 144, 229, 9, 59, 159, 97, 6, 189, 21, 7, 225, 188, 144, 120, 97, 59, 54, 5, 78, 188, 215, 174, 14, 61, 224, 151, 11, 188, 21, 93, 32, 61, 96, 11, 188, 186, 90, 11, 120, 188, 5, 161, 1, 61, 214, 119, 185, 60, 87, 130, 20, 61, 104, 62, 26, 189, 232, 164, 173, 187, 70, 23, 210, 60, 183, 220, 196, 188, 34, 195, 129, 188, 56, 122, 25, 60, 112, 39, 102, 59, 223, 63, 35, 61, 120, 64, 101, 60, 154, 139, 135, 188, 48, 9, 56, 187, 58, 65, 8, 189, 152, 209, 255, 188, 212, 151, 19, 189, 127, 113, 44, 189, 52, 149, 37, 60, 176, 74, 77, 188, 145, 253, 41, 61, 216, 75, 98, 60, 39, 21, 130, 188, 216, 95, 42, 188, 240, 15, 14, 60, 85, 177, 167, 188, 0, 192, 218, 58, 72, 217, 23, 60, 16, 182, 20, 189, 41, 236, 199, 188, 33, 103, 42, 189, 22, 29, 249, 60, 226, 30, 248, 60, 124, 172, 34, 60, 188, 13, 60, 60, 22, 39, 221, 60, 70, 93, 251, 60, 81, 169, 191, 188, 130, 34, 132, 60, 160, 83, 97, 188, 82, 171, 186, 60, 135, 64, 202, 188, 39, 15, 0, 61, 0, 144, 164, 185, 189, 27, 22, 61, 234, 214, 180, 60, 32, 158, 3, 59, 66, 14, 244, 188, 36, 74, 18, 189, 4, 242, 179, 188, 94, 117, 238, 188, 228, 126, 113, 188, 36, 131, 83, 188, 166, 211, 154, 60, 136, 171, 104, 60, 44, 71, 25, 189, 0, 208, 250, 186, 50, 161, 236, 60, 22, 164, 205, 60, 104, 149, 166, 59, 47, 88, 41, 61, 137, 67, 22, 189, 76, 168, 3, 189, 58, 152, 223, 60, 222, 47, 3, 189, 0, 17, 96, 57, 96, 174, 55, 59, 100, 113, 242, 188, 138, 88, 37, 189, 232, 173, 146, 59, 200, 217, 11, 189, 134, 114, 166, 60, 140, 151, 53, 188, 140, 35, 19, 60, 216, 10, 103, 60, 204, 5, 187, 188, 19, 211, 180, 188, 88, 43, 196, 188, 232, 113, 222, 188, 248, 250, 30, 189, 88, 135, 186, 187, 208, 191, 73, 59, 159, 196, 34, 61, 244, 159, 163, 188, 192, 72, 106, 59, 207, 139, 24, 61, 105, 188, 26, 61, 68, 47, 2, 60, 0, 15, 14, 188, 158, 76, 213, 60, 112, 196, 87, 59, 16, 186, 80, 59, 179, 245, 164, 188, 60, 157, 10, 189, 50, 23, 153, 188, 12, 17, 255, 188, 70, 216, 228, 60, 55, 63, 22, 61, 64, 54, 206, 187, 75, 235, 27, 61, 253, 254, 191, 188, 224, 243, 125, 187, 192, 234, 12, 188, 30, 74, 199, 60, 74, 250, 251, 60, 138, 179, 128, 188, 16, 155, 180, 59, 54, 132, 235, 60, 143, 128, 10, 61, 31, 35, 0, 61, 192, 41, 128, 58, 128, 86, 218, 188, 24, 80, 15, 189, 176, 236, 248, 187, 231, 69, 45, 61, 223, 158, 136, 188, 40, 218, 65, 188, 186, 6, 168, 188, 208, 82, 45, 188, 76, 144, 198, 188, 7, 71, 2, 61, 20, 169, 97, 60, 6, 170, 183, 188, 36, 63, 49, 188, 132, 98, 44, 188, 36, 221, 160, 60, 149, 243, 22, 61, 61, 49, 136, 188, 132, 236, 27, 60, 118, 135, 83, 188, 23, 244, 207, 188, 95, 18, 38, 61, 70, 143, 232, 188, 88, 33, 152, 59, 48, 45, 133, 187, 96, 169, 230, 188, 22, 18, 237, 60, 40, 104, 215, 187, 18, 61, 131, 60, 83, 171, 40, 61, 145, 139, 221, 188, 186, 130, 232, 188, 192, 187, 123, 186, 204, 145, 137, 60, 115, 226, 145, 188, 221, 234, 32, 189, 196, 190, 154, 60, 250, 224, 216, 60, 194, 201, 246, 188, 124, 183, 126, 60, 4, 62, 23, 60, 24, 110, 18, 189, 244, 22, 234, 188, 150, 68, 190, 60, 143, 150, 16, 61, 198, 130, 254, 188, 236, 90, 32, 189, 239, 49, 27, 189, 39, 125, 1, 189, 140, 60, 152, 188, 48, 79, 92, 60, 195, 159, 17, 61, 28, 211, 113, 188, 132, 21, 136, 188, 170, 144, 187, 60, 31, 81, 181, 188, 155, 24, 151, 188, 163, 115, 234, 188, 116, 121, 135, 60, 40, 199, 161, 60, 32, 32, 118, 187, 141, 57, 13, 61, 202, 41, 145, 60, 65, 150, 239, 188, 32, 203, 27, 188, 178, 124, 188, 188, 112, 79, 39, 59, 128, 148, 155, 59, 139, 50, 38, 189, 216, 146, 181, 187, 134, 66, 38, 189, 209, 132, 19, 189, 8, 96, 44, 189, 109, 9, 1, 61, 240, 249, 85, 59, 200, 79, 8, 188, 34, 8, 191, 60, 72, 202, 23, 188, 6, 182, 32, 189, 205, 170, 172, 188, 128, 53, 240, 57, 236, 159, 42, 188, 88, 248, 245, 187, 181, 202, 38, 61, 0, 146, 139, 57, 80, 191, 21, 187, 246, 44, 191, 60, 216, 89, 188, 59, 82, 91, 195, 188, 63, 249, 10, 61, 0, 24, 217, 55, 106, 85, 174, 60, 2, 7, 175, 60, 23, 186, 230, 188, 28, 89, 60, 188, 123, 30, 5, 189, 177, 167, 17, 61, 204, 162, 145, 60, 70, 239, 199, 60, 46, 61, 224, 60, 108, 206, 252, 188, 157, 158, 11, 61, 164, 152, 35, 60, 192, 40, 20, 188, 72, 242, 184, 188, 96, 64, 209, 59, 192, 24, 86, 59, 238, 32, 17, 189, 228, 42, 97, 60, 86, 157, 178, 60, 104, 200, 227, 187, 43, 38, 176, 188, 2, 133, 210, 60, 207, 196, 7, 61, 160, 99, 215, 187, 87, 207, 38, 61, 10, 41, 126, 188, 187, 92, 19, 61, 62, 149, 194, 60, 180, 101, 139, 188, 156, 58, 131, 188, 188, 247, 194, 188, 91, 163, 189, 188, 166, 1, 12, 189, 78, 48, 122, 188, 64, 187, 20, 58, 137, 106, 23, 61, 142, 197, 175, 60, 76, 212, 25, 60, 224, 73, 127, 187, 193, 68, 31, 61, 128, 37, 212, 187, 74, 77, 226, 60, 140, 49, 248, 188, 148, 191, 23, 189, 160, 95, 32, 189, 224, 103, 18, 188, 46, 228, 172, 60, 142, 25, 134, 60, 152, 28, 66, 60, 0, 4, 84, 58, 178, 254, 186, 60, 220, 194, 109, 60, 13, 20, 12, 61, 234, 241, 158, 60, 34, 242, 214, 188, 62, 68, 38, 189, 125, 169, 163, 188, 127, 7, 160, 188, 146, 154, 221, 188, 179, 40, 33, 61, 99, 99, 19, 61, 68, 20, 20, 189, 50, 23, 231, 60, 83, 149, 238, 188, 88, 197, 145, 187, 54, 64, 12, 189, 123, 239, 22, 61, 162, 49, 98, 188, 32, 24, 79, 59, 101, 248, 41, 61, 106, 244, 225, 60, 171, 146, 15, 61, 139, 117, 1, 189, 130, 165, 143, 60, 52, 138, 132, 188, 35, 100, 44, 189, 202, 186, 27, 189, 109, 38, 33, 61, 83, 54, 6, 189, 198, 188, 175, 60, 105, 0, 32, 61, 64, 253, 49, 188, 26, 189, 188, 188, 21, 89, 26, 189, 118, 4, 190, 188, 184, 69, 39, 189, 45, 105, 8, 61, 45, 17, 130, 188, 248, 73, 130, 60, 56, 1, 92, 60, 0, 192, 205, 187, 12, 136, 210, 188, 182, 41, 181, 60, 134, 8, 218, 188, 80, 142, 150, 59, 122, 223, 242, 188, 185, 181, 44, 189, 170, 32, 241, 60, 221, 86, 202, 188, 144, 94, 185, 187, 4, 62, 83, 60, 74, 210, 184, 60, 44, 158, 42, 60, 200, 189, 140, 59, 15, 194, 168, 188, 28, 38, 210, 188, 242, 218, 254, 188, 97, 89, 27, 61, 230, 38, 216, 60, 201, 135, 35, 61, 16, 86, 53, 60, 192, 48, 248, 59, 237, 26, 4, 61, 194, 202, 32, 189, 153, 89, 5, 61, 203, 177, 202, 188, 80, 213, 178, 59, 160, 53, 200, 188, 96, 33, 133, 59, 112, 245, 237, 187, 156, 246, 159, 188, 228, 32, 104, 188, 88, 193, 239, 59, 117, 216, 41, 61, 132, 155, 154, 60, 208, 204, 88, 59, 168, 82, 148, 59, 99, 99, 18, 61, 200, 37, 37, 189, 128, 233, 108, 58, 160, 30, 111, 187, 78, 28, 137, 60, 21, 93, 18, 61, 96, 220, 86, 187, 130, 247, 232, 60, 100, 224, 18, 188, 175, 46, 27, 189, 144, 238, 48, 187, 18, 184, 233, 60, 228, 9, 144, 60, 124, 190, 99, 60, 24, 203, 217, 188, 189, 120, 36, 61, 107, 49, 19, 61, 53, 86, 29, 61, 19, 142, 40, 189, 212, 143, 96, 188, 183, 108, 129, 188, 92, 80, 255, 188, 241, 136, 41, 189, 38, 126, 154, 60, 6, 157, 129, 188, 248, 20, 11, 188, 144, 81, 218, 59, 128, 168, 84, 188, 197, 134, 7, 61, 58, 5, 192, 60, 9, 100, 10, 61, 75, 208, 146, 188, 74, 6, 169, 60, 94, 150, 222, 60, 166, 128, 25, 189, 170, 130, 212, 60, 72, 20, 228, 188, 124, 197, 28, 188, 89, 46, 215, 188, 106, 103, 141, 188, 180, 53, 140, 60, 192, 146, 154, 60, 215, 208, 199, 188, 96, 184, 42, 189, 82, 122, 197, 60, 209, 93, 137, 188, 46, 107, 77, 188, 24, 91, 66, 188, 24, 31, 195, 59, 206, 171, 196, 60, 198, 58, 39, 189, 239, 203, 154, 188, 168, 132, 37, 189, 88, 119, 83, 60, 160, 104, 136, 186, 51, 245, 40, 61, 176, 155, 8, 187, 172, 128, 110, 60, 16, 243, 164, 59, 8, 57, 5, 189, 194, 234, 41, 189, 158, 194, 194, 60, 244, 250, 109, 188, 148, 3, 23, 60, 179, 123, 29, 189, 26, 254, 160, 188, 195, 73, 204, 188, 177, 221, 20, 61, 152, 86, 15, 189, 76, 204, 102, 60, 52, 249, 148, 60, 40, 29, 37, 189, 84, 156, 136, 60, 143, 95, 5, 61, 170, 181, 210, 188, 60, 51, 47, 188, 244, 245, 225, 188, 196, 115, 38, 60, 216, 36, 190, 188, 208, 29, 122, 187, 64, 39, 59, 58, 189, 215, 250, 188, 60, 220, 185, 188, 107, 196, 18, 189, 222, 213, 213, 188, 232, 240, 48, 60, 12, 225, 6, 189, 118, 214, 39, 189, 107, 210, 5, 189, 216, 48, 151, 59, 237, 239, 14, 61, 104, 236, 49, 188, 248, 116, 154, 59, 242, 120, 197, 60, 84, 15, 127, 60, 0, 73, 44, 57, 224, 58, 63, 187, 28, 215, 22, 189, 32, 227, 32, 189, 216, 73, 236, 59, 253, 51, 16, 61, 178, 155, 234, 188, 128, 207, 40, 58, 2, 35, 242, 60, 177, 182, 2, 61, 56, 129, 83, 60, 50, 145, 36, 189, 1, 149, 8, 61, 240, 84, 180, 188, 203, 69, 23, 61, 128, 171, 228, 59, 192, 115, 195, 186, 71, 235, 32, 189, 124, 119, 122, 60, 248, 209, 155, 60, 33, 196, 21, 61, 148, 39, 123, 60, 35, 75, 41, 61, 80, 73, 190, 59, 114, 26, 187, 188, 6, 248, 197, 188, 61, 82, 7, 61, 104, 230, 17, 189, 24, 59, 44, 189, 180, 188, 89, 60, 180, 147, 238, 188, 64, 126, 123, 187, 128, 185, 101, 58, 105, 144, 7, 189, 135, 246, 201, 188, 178, 15, 243, 188, 72, 192, 252, 187, 39, 30, 20, 61, 192, 145, 248, 58, 126, 39, 37, 189, 64, 29, 186, 187, 116, 153, 92, 60, 108, 179, 90, 60, 93, 221, 35, 61, 128, 29, 105, 60, 200, 72, 84, 60, 99, 206, 5, 61, 150, 199, 71, 188, 36, 93, 150, 60, 173, 92, 46, 61, 83, 139, 31, 61, 222, 83, 10, 189, 240, 207, 21, 60, 92, 238, 193, 188, 46, 65, 223, 188, 241, 34, 198, 188, 175, 78, 12, 189, 17, 100, 3, 189, 135, 189, 21, 61, 237, 102, 26, 61, 59, 59, 12, 189, 26, 56, 32, 189, 14, 67, 212, 60, 46, 44, 188, 60, 152, 203, 160, 187, 174, 19, 255, 60, 109, 249, 139, 188, 80, 231, 104, 59, 16, 75, 28, 189, 176, 186, 86, 188, 154, 17, 1, 189, 24, 199, 252, 59, 57, 50, 142, 188, 93, 48, 13, 189, 108, 94, 47, 188, 48, 28, 227, 59, 230, 88, 0, 189, 111, 212, 199, 188, 8, 254, 134, 60, 112, 232, 28, 187, 22, 187, 237, 60, 6, 197, 233, 60, 54, 221, 139, 188, 46, 161, 136, 188, 52, 115, 0, 189, 67, 192, 19, 61, 245, 22, 25, 61, 48, 78, 207, 187, 112, 66, 39, 189, 240, 13, 57, 188, 2, 222, 234, 60, 173, 106, 43, 189, 233, 46, 45, 61, 164, 14, 155, 60, 176, 63, 171, 59, 67, 166, 32, 61, 53, 127, 20, 61, 230, 117, 182, 60, 40, 159, 41, 188, 50, 177, 210, 188, 14, 43, 44, 189, 247, 251, 24, 61, 169, 102, 212, 188, 248, 198, 8, 60, 68, 109, 54, 188, 102, 107, 177, 60, 51, 250, 41, 189, 247, 60, 7, 61, 112, 148, 101, 60, 80, 36, 16, 60, 72, 82, 191, 187, 79, 69, 20, 189, 28, 27, 53, 188, 187, 176, 42, 61, 168, 97, 39, 189, 185, 185, 188, 188, 84, 151, 34, 189, 122, 87, 97, 188, 247, 65, 31, 189, 133, 54, 138, 188, 74, 129, 32, 189, 88, 101, 151, 59, 78, 170, 223, 60, 246, 80, 228, 60, 48, 59, 240, 59, 226, 112, 25, 189, 189, 17, 7, 61, 138, 126, 0, 189, 190, 105, 151, 60, 87, 54, 34, 61, 128, 164, 209, 59, 50, 100, 181, 60, 129, 196, 41, 61, 130, 28, 252, 60, 30, 201, 131, 188, 249, 202, 41, 189, 107, 215, 31, 61, 13, 165, 46, 61, 114, 49, 36, 189, 35, 223, 139, 188, 238, 226, 215, 60, 160, 104, 157, 59, 198, 96, 132, 60, 16, 207, 228, 187, 138, 190, 254, 188, 92, 8, 24, 189, 253, 140, 246, 188, 208, 192, 160, 187, 4, 39, 111, 188, 208, 215, 67, 59, 103, 195, 29, 61, 248, 121, 17, 188, 135, 233, 189, 188, 136, 202, 147, 59, 24, 83, 23, 188, 45, 137, 10, 189, 49, 251, 37, 189, 255, 199, 23, 61, 72, 89, 191, 59, 155, 116, 14, 61, 8, 151, 42, 188, 0, 40, 35, 59, 48, 139, 122, 60, 118, 252, 143, 60, 140, 29, 17, 188, 16, 108, 26, 60, 224, 209, 42, 59, 81, 174, 45, 189, 76, 159, 5, 189, 150, 21, 216, 60, 110, 95, 27, 189, 132, 93, 31, 60, 174, 75, 245, 188, 238, 0, 26, 189, 190, 61, 220, 60, 196, 210, 13, 60, 239, 120, 16, 61, 221, 114, 196, 188, 148, 113, 22, 188, 128, 106, 52, 187, 185, 22, 27, 61, 225, 90, 19, 61, 53, 187, 173, 188, 226, 228, 244, 60, 40, 100, 230, 59, 216, 251, 37, 188, 224, 7, 16, 187, 216, 178, 20, 60, 89, 237, 22, 61, 71, 61, 27, 61, 34, 30, 182, 60, 232, 215, 240, 187, 10, 163, 249, 60, 238, 167, 231, 188, 25, 62, 6, 61, 52, 185, 40, 188, 0, 217, 34, 185, 108, 156, 13, 60, 104, 14, 133, 188, 50, 76, 162, 60, 132, 60, 71, 60, 14, 244, 210, 60, 252, 52, 11, 60, 184, 66, 150, 187, 6, 198, 167, 60, 9, 169, 18, 189, 160, 236, 245, 187, 84, 205, 45, 60, 154, 239, 161, 60, 113, 35, 14, 189, 128, 165, 76, 60, 56, 192, 52, 188, 144, 170, 103, 60, 10, 4, 84, 188, 76, 230, 49, 60, 170, 195, 220, 60, 104, 102, 251, 187, 168, 237, 239, 188, 100, 130, 147, 60, 243, 52, 189, 188, 77, 120, 27, 61, 67, 113, 176, 188, 84, 87, 20, 189, 147, 229, 24, 61, 130, 54, 1, 189, 90, 60, 14, 189, 94, 18, 221, 188, 6, 217, 32, 189, 48, 118, 247, 59, 107, 56, 12, 61, 196, 33, 5, 60, 207, 170, 14, 61, 183, 89, 159, 188, 16, 53, 109, 187, 96, 118, 14, 189, 196, 156, 28, 189, 196, 133, 17, 60, 104, 123, 237, 188, 145, 22, 27, 61, 96, 66, 7, 188, 236, 58, 138, 60, 254, 154, 206, 60, 66, 71, 170, 60, 153, 85, 11, 61, 82, 128, 203, 188, 150, 235, 213, 60, 160, 36, 119, 60, 241, 101, 15, 61, 124, 57, 18, 188, 192, 3, 52, 187, 64, 1, 151, 58, 111, 197, 140, 188, 254, 27, 226, 60, 56, 158, 207, 187, 118, 27, 166, 188, 238, 192, 222, 188, 98, 155, 175, 60, 0, 130, 245, 187, 71, 246, 29, 189, 178, 191, 244, 60, 240, 177, 12, 188, 32, 127, 8, 59, 126, 64, 149, 188, 173, 65, 11, 189, 125, 158, 25, 189, 14, 24, 186, 60, 99, 228, 13, 61, 152, 179, 149, 188, 136, 237, 15, 189, 139, 225, 34, 61, 126, 253, 147, 60, 36, 215, 44, 60, 0, 4, 6, 56, 64, 25, 125, 58, 218, 158, 255, 188, 250, 5, 127, 188, 77, 55, 44, 61, 133, 167, 13, 61, 12, 41, 73, 60, 201, 213, 154, 188, 18, 63, 232, 60, 209, 37, 34, 61, 163, 81, 215, 188, 148, 221, 33, 188, 90, 30, 8, 189, 83, 1, 27, 61, 26, 91, 153, 188, 0, 113, 22, 58, 182, 155, 253, 60, 240, 114, 175, 188, 24, 73, 179, 187, 16, 23, 80, 60, 45, 22, 38, 61, 70, 248, 203, 60, 192, 28, 175, 187, 224, 86, 160, 58, 50, 208, 3, 189, 80, 243, 116, 59, 8, 113, 203, 59, 198, 88, 238, 60, 248, 140, 15, 188, 200, 25, 212, 187, 128, 178, 176, 57, 206, 188, 195, 60, 138, 252, 144, 60, 39, 192, 134, 188, 152, 245, 174, 59, 246, 122, 7, 189, 50, 63, 11, 189, 68, 228, 129, 188, 32, 100, 166, 58, 0, 99, 121, 186, 224, 245, 119, 187, 108, 63, 151, 188, 128, 75, 210, 185, 249, 173, 129, 188, 46, 109, 162, 60, 64, 146, 202, 58, 136, 4, 85, 60, 226, 239, 132, 188, 176, 219, 101, 187, 248, 246, 198, 187, 206, 129, 172, 188, 96, 210, 213, 187, 80, 213, 104, 187, 121, 9, 41, 61, 238, 237, 161, 188, 144, 106, 44, 59, 65, 144, 4, 61, 136, 9, 50, 60, 21, 212, 212, 188, 58, 76, 243, 60, 32, 38, 74, 60, 154, 245, 8, 189, 46, 131, 204, 60, 82, 103, 244, 60, 94, 100, 193, 60, 126, 209, 39, 189, 10, 94, 239, 60, 94, 131, 240, 188, 65, 191, 38, 61, 126, 193, 234, 60, 235, 173, 134, 188, 224, 191, 15, 187, 6, 38, 112, 188, 50, 73, 247, 60, 146, 64, 194, 188, 147, 86, 213, 188, 93, 170, 44, 189, 239, 178, 15, 61, 193, 190, 39, 61, 80, 185, 127, 60, 3, 112, 32, 61, 242, 120, 81, 188, 230, 167, 80, 188, 31, 245, 43, 61, 226, 197, 1, 189, 230, 251, 11, 189, 253, 121, 143, 188, 251, 223, 21, 189, 220, 231, 103, 60, 160, 240, 31, 188, 32, 62, 208, 58, 176, 160, 157, 59, 181, 4, 34, 61, 160, 134, 185, 188, 130, 253, 220, 60, 246, 148, 210, 188, 167, 220, 196, 188, 74, 247, 16, 189, 128, 126, 155, 188, 228, 93, 12, 189, 112, 226, 239, 59, 122, 27, 123, 188, 224, 70, 33, 188, 55, 37, 16, 189, 181, 164, 16, 189, 72, 56, 149, 188, 200, 30, 241, 187, 253, 118, 9, 61, 198, 109, 184, 60, 192, 45, 30, 58, 65, 189, 246, 188, 100, 129, 10, 60, 214, 169, 247, 188, 146, 25, 159, 60, 246, 108, 232, 60, 110, 165, 199, 60, 196, 195, 156, 60, 185, 62, 14, 61, 128, 2, 237, 58, 104, 63, 254, 187, 253, 200, 240, 188, 200, 245, 33, 60, 209, 188, 7, 61, 64, 185, 1, 189, 160, 164, 20, 187, 192, 66, 184, 58, 181, 162, 28, 61, 144, 120, 31, 187, 80, 215, 15, 188, 32, 53, 52, 187, 204, 63, 37, 189, 120, 238, 37, 60, 38, 179, 197, 60, 32, 179, 130, 59, 97, 100, 14, 189, 72, 180, 196, 59, 208, 47, 19, 60, 178, 142, 249, 60, 94, 209, 242, 60, 105, 143, 44, 61, 230, 154, 215, 60, 150, 95, 177, 60, 91, 252, 254, 188, 112, 51, 81, 60, 160, 188, 146, 60, 86, 183, 227, 60, 59, 24, 17, 61, 167, 241, 42, 61, 197, 225, 36, 61, 118, 103, 113, 188, 96, 141, 250, 186, 8, 253, 159, 187, 222, 128, 181, 60, 152, 159, 32, 188, 67, 79, 9, 61, 66, 144, 167, 60, 32, 145, 91, 60, 72, 54, 171, 187, 50, 66, 104, 188, 0, 241, 223, 186, 144, 70, 182, 187, 190, 192, 159, 188, 80, 66, 198, 59, 172, 73, 12, 189, 43, 179, 41, 61, 52, 23, 25, 189, 152, 152, 19, 60, 184, 249, 16, 189, 53, 194, 24, 189, 114, 211, 204, 60, 12, 225, 40, 60, 32, 211, 89, 187, 228, 108, 1, 60, 236, 12, 1, 189, 178, 120, 16, 189, 187, 29, 216, 188, 151, 137, 0, 61, 177, 162, 24, 61, 240, 255, 149, 59, 96, 7, 63, 59, 0, 160, 69, 187, 204, 65, 12, 188, 228, 44, 49, 60, 112, 131, 71, 188, 247, 146, 30, 61, 94, 67, 184, 188, 133, 128, 31, 61, 230, 104, 190, 60, 191, 1, 192, 188, 37, 240, 202, 188, 190, 28, 42, 189, 44, 136, 19, 189, 76, 46, 86, 60, 234, 123, 175, 60, 66, 35, 214, 60, 58, 36, 172, 60, 24, 210, 232, 59, 192, 75, 0, 187, 90, 108, 157, 188, 211, 200, 199, 188, 112, 218, 57, 59, 216, 76, 88, 60, 10, 214, 193, 60, 7, 124, 0, 61, 0, 120, 181, 59, 96, 109, 150, 187, 131, 126, 162, 188, 208, 128, 10, 59, 15, 72, 3, 61, 216, 97, 54, 188, 144, 241, 74, 59, 90, 254, 136, 60, 224, 163, 146, 60, 140, 68, 80, 60, 161, 50, 160, 188, 48, 206, 68, 59, 171, 84, 8, 61, 207, 69, 232, 188, 120, 9, 242, 188, 48, 226, 222, 187, 159, 76, 3, 61, 0, 157, 25, 186, 27, 11, 142, 188, 240, 226, 44, 60, 0, 155, 147, 187, 32, 229, 36, 187, 89, 14, 32, 61, 96, 103, 192, 59, 0, 217, 34, 188, 22, 57, 253, 60, 74, 65, 152, 60, 140, 34, 93, 60, 106, 135, 227, 60, 32, 146, 156, 58, 102, 94, 215, 60, 55, 131, 172, 188, 55, 111, 9, 189, 4, 198, 94, 60, 238, 158, 163, 60, 16, 68, 9, 60, 103, 45, 143, 188, 228, 35, 23, 60, 103, 75, 1, 61, 115, 251, 18, 189, 79, 142, 14, 61, 41, 8, 188, 188, 190, 63, 17, 189, 64, 139, 28, 60, 16, 152, 237, 59, 16, 125, 226, 188, 149, 149, 26, 61, 222, 12, 202, 60, 208, 108, 94, 59, 232, 247, 42, 188, 142, 38, 162, 60, 59, 144, 42, 189, 250, 178, 196, 60, 131, 71, 152, 188, 125, 213, 164, 188, 80, 248, 62, 59, 31, 252, 31, 61, 149, 79, 14, 61, 155, 37, 205, 188, 245, 133, 2, 189, 45, 24, 30, 61, 238, 47, 197, 60, 217, 58, 29, 61, 230, 173, 178, 60, 22, 176, 145, 60, 182, 7, 236, 60, 24, 51, 222, 187, 33, 22, 197, 188, 67, 220, 29, 189, 107, 211, 192, 188, 96, 7, 137, 60, 162, 5, 152, 60, 191, 227, 36, 189, 34, 222, 247, 60, 190, 201, 208, 60, 208, 80, 233, 187, 108, 76, 211, 188, 206, 30, 139, 60, 60, 196, 40, 60, 192, 206, 143, 187, 128, 32, 214, 185, 248, 246, 13, 188, 56, 107, 252, 188, 96, 165, 81, 59, 76, 187, 73, 60, 136, 149, 187, 187, 238, 7, 232, 188, 240, 182, 56, 188, 173, 41, 184, 188, 127, 116, 147, 188, 88, 151, 117, 188, 41, 221, 5, 61, 240, 146, 112, 187, 114, 145, 65, 188, 77, 180, 16, 61, 180, 40, 41, 60, 30, 164, 203, 60, 245, 54, 19, 61, 64, 163, 118, 58, 12, 100, 241, 188, 201, 43, 8, 61, 41, 177, 44, 189, 183, 80, 43, 61, 77, 239, 203, 188, 2, 167, 239, 60, 180, 58, 201, 188, 119, 132, 30, 189, 81, 93, 158, 188, 219, 210, 20, 189, 172, 168, 20, 189, 4, 119, 82, 60, 246, 149, 152, 60, 144, 37, 104, 187, 106, 9, 241, 60, 187, 52, 10, 61, 11, 191, 25, 61, 230, 155, 154, 60, 114, 48, 125, 188, 140, 136, 5, 60, 174, 126, 14, 189, 105, 111, 36, 61, 140, 244, 158, 60, 171, 79, 33, 61, 136, 49, 55, 188, 128, 12, 253, 58, 173, 42, 40, 61, 0, 224, 123, 60, 16, 60, 4, 189, 196, 10, 182, 188, 198, 56, 228, 60, 74, 84, 235, 60, 22, 93, 244, 60, 128, 67, 254, 59, 128, 201, 199, 58, 160, 167, 149, 187, 31, 123, 5, 189, 60, 7, 150, 60, 192, 57, 8, 59, 162, 83, 168, 188, 17, 254, 5, 189, 170, 202, 227, 60, 117, 78, 8, 61, 154, 47, 173, 60, 172, 79, 14, 60, 150, 21, 182, 60, 216, 245, 133, 59, 101, 154, 12, 61, 98, 35, 233, 188, 112, 240, 242, 187, 176, 37, 120, 60, 148, 168, 178, 188, 247, 61, 25, 61, 144, 251, 78, 187, 254, 42, 170, 60, 122, 4, 165, 60, 29, 188, 29, 61, 88, 11, 92, 188, 143, 123, 146, 188, 240, 177, 208, 59, 120, 29, 227, 187, 18, 37, 187, 60, 21, 152, 212, 188, 46, 240, 173, 60, 192, 216, 15, 58, 150, 249, 201, 60, 76, 37, 44, 60, 249, 73, 43, 61, 208, 37, 240, 59, 124, 251, 189, 188, 215, 132, 42, 61, 38, 197, 171, 188, 88, 113, 140, 187, 123, 221, 7, 189, 240, 143, 198, 59, 168, 207, 76, 60, 39, 24, 18, 61, 213, 95, 45, 61, 197, 133, 177, 188, 209, 168, 218, 188, 34, 204, 161, 60, 35, 217, 7, 61, 214, 76, 142, 60, 32, 162, 18, 59, 100, 9, 209, 188, 160, 157, 103, 187, 58, 54, 174, 60, 10, 58, 183, 188, 218, 137, 208, 60, 10, 36, 34, 189, 160, 244, 237, 58, 79, 242, 22, 61, 214, 2, 202, 60, 82, 247, 223, 188, 208, 178, 21, 59, 0, 96, 96, 186, 79, 163, 43, 189, 104, 164, 119, 60, 26, 112, 196, 60, 184, 116, 138, 188, 118, 172, 169, 60, 96, 117, 36, 189, 184, 44, 61, 188, 86, 149, 185, 60, 54, 94, 223, 60, 128, 76, 147, 187, 104, 31, 158, 59, 217, 63, 143, 188, 66, 218, 218, 188, 14, 12, 238, 188, 234, 164, 183, 188, 72, 133, 75, 60, 110, 181, 172, 60, 16, 29, 19, 59, 248, 75, 78, 60, 248, 26, 82, 188, 154, 111, 199, 60, 164, 49, 40, 60, 32, 209, 146, 188, 236, 186, 39, 60, 224, 98, 42, 188, 246, 216, 163, 188, 160, 156, 205, 186, 215, 174, 172, 188, 22, 26, 205, 60, 112, 121, 187, 188, 128, 128, 166, 57, 53, 148, 29, 61, 79, 15, 169, 188, 0, 0, 250, 188, 187, 197, 144, 188, 125, 80, 0, 61, 62, 124, 233, 188, 0, 230, 37, 188, 190, 235, 206, 188, 232, 123, 177, 187, 144, 122, 34, 60, 174, 188, 209, 60, 217, 113, 151, 188, 224, 220, 3, 188, 152, 227, 148, 60, 129, 46, 22, 61, 119, 39, 41, 61, 24, 89, 73, 60, 175, 226, 7, 189, 144, 254, 21, 187, 250, 68, 173, 60, 0, 79, 34, 59, 142, 78, 252, 188, 28, 180, 49, 188, 163, 158, 28, 189, 40, 55, 40, 60, 120, 236, 64, 60, 94, 121, 168, 60, 70, 109, 69, 188, 64, 195, 156, 60, 93, 210, 28, 61, 70, 183, 131, 60, 76, 209, 166, 188, 126, 150, 125, 188, 28, 180, 102, 60, 69, 130, 24, 61, 48, 213, 117, 187, 179, 236, 23, 189, 88, 164, 191, 59, 130, 60, 200, 60, 125, 193, 0, 189, 192, 149, 72, 186, 26, 218, 119, 188, 224, 142, 221, 58, 246, 225, 251, 60, 118, 139, 245, 188, 61, 196, 15, 61, 76, 117, 87, 60, 130, 80, 1, 189, 156, 40, 58, 60, 32, 152, 24, 187, 224, 56, 216, 186, 188, 91, 11, 189, 44, 169, 8, 189, 82, 178, 227, 188, 162, 196, 244, 60, 12, 206, 33, 189, 142, 63, 191, 60, 192, 179, 253, 58, 204, 124, 125, 188, 208, 154, 60, 59, 180, 202, 100, 60, 96, 169, 59, 59, 116, 103, 126, 188, 75, 130, 42, 61, 96, 60, 67, 187, 139, 180, 235, 188, 218, 219, 173, 60, 148, 247, 146, 60, 0, 153, 12, 58, 56, 151, 238, 187, 128, 146, 141, 187, 226, 3, 150, 60, 0, 45, 35, 186, 67, 44, 192, 188, 148, 250, 88, 60, 128, 205, 186, 57, 229, 134, 212, 188, 80, 156, 232, 188, 21, 8, 37, 189, 217, 105, 228, 188, 247, 60, 16, 61, 24, 243, 68, 60, 136, 189, 11, 188, 92, 255, 154, 188, 232, 192, 191, 187, 236, 132, 8, 189, 224, 181, 213, 186, 112, 130, 198, 187, 5, 219, 14, 61, 147, 6, 138, 188, 28, 228, 70, 188, 208, 183, 37, 187, 150, 231, 171, 60, 133, 42, 26, 61, 162, 196, 6, 189, 10, 55, 254, 188, 204, 186, 16, 189, 179, 158, 18, 61, 44, 143, 22, 189, 207, 13, 30, 61, 150, 2, 23, 189, 60, 219, 150, 188, 238, 53, 145, 60, 242, 206, 212, 60, 152, 206, 108, 60, 112, 192, 84, 60, 64, 251, 9, 188, 247, 104, 14, 189, 99, 34, 41, 189, 193, 191, 234, 188, 82, 107, 167, 60, 96, 145, 24, 189, 214, 250, 254, 188, 10, 31, 238, 60, 173, 159, 34, 61, 211, 69, 18, 189, 57, 62, 29, 61, 176, 96, 155, 59, 35, 19, 221, 188, 144, 110, 136, 188, 1, 107, 137, 188, 144, 228, 232, 187, 158, 24, 247, 60, 200, 132, 243, 187, 69, 46, 45, 189, 40, 124, 144, 60, 131, 55, 2, 61, 206, 207, 162, 60, 234, 101, 141, 60, 124, 38, 227, 188, 100, 10, 29, 188, 160, 232, 51, 188, 86, 144, 175, 60, 83, 49, 144, 188, 244, 244, 94, 60, 0, 154, 86, 187, 6, 223, 182, 60, 32, 17, 31, 187, 104, 184, 161, 188, 74, 220, 186, 60, 139, 13, 14, 61, 180, 33, 27, 188, 72, 251, 90, 188, 202, 233, 219, 60, 186, 118, 163, 60, 180, 128, 67, 60, 218, 221, 185, 60, 90, 126, 173, 188, 248, 185, 38, 189, 200, 55, 190, 188, 131, 76, 15, 189, 96, 35, 11, 189, 238, 222, 91, 188, 32, 195, 64, 187, 53, 155, 29, 61, 251, 177, 22, 61, 2, 8, 207, 60, 82, 161, 239, 60, 136, 121, 223, 59, 10, 221, 165, 60, 255, 12, 6, 61, 20, 179, 30, 188, 16, 34, 78, 187, 8, 8, 156, 60, 112, 134, 135, 187, 235, 99, 14, 61, 3, 230, 11, 61, 44, 155, 107, 60, 159, 194, 40, 61, 81, 176, 37, 61, 133, 45, 130, 188, 247, 219, 33, 189, 80, 160, 178, 59, 94, 208, 8, 189, 253, 224, 11, 61, 22, 207, 237, 60, 76, 47, 20, 60, 83, 74, 2, 61, 190, 166, 188, 188, 224, 176, 112, 60, 220, 72, 8, 188, 164, 125, 33, 188, 99, 163, 208, 188, 165, 78, 28, 61, 174, 134, 84, 188, 32, 251, 119, 187, 158, 14, 242, 188, 182, 243, 33, 189, 214, 0, 224, 60, 80, 89, 213, 187, 120, 102, 98, 60, 138, 176, 133, 60, 162, 204, 241, 188, 72, 208, 184, 187, 70, 64, 238, 60, 211, 92, 15, 61, 32, 157, 82, 187, 32, 58, 33, 187, 115, 16, 10, 189, 48, 144, 232, 187, 30, 113, 170, 60, 46, 228, 24, 189, 66, 220, 128, 60, 193, 3, 176, 188, 251, 136, 6, 61, 12, 212, 45, 189, 192, 206, 124, 58, 175, 78, 20, 61, 105, 172, 23, 61, 18, 32, 217, 188, 182, 15, 222, 60, 240, 121, 64, 60, 130, 142, 252, 188, 251, 107, 194, 188, 168, 203, 185, 59, 63, 71, 157, 188, 229, 27, 24, 189, 155, 92, 229, 188, 192, 250, 232, 188, 162, 202, 196, 60, 224, 22, 143, 60, 80, 128, 28, 187, 94, 158, 179, 60, 52, 67, 33, 60, 10, 185, 196, 188, 202, 83, 110, 188, 247, 201, 13, 61, 182, 180, 229, 188, 222, 53, 131, 188, 100, 141, 108, 60, 248, 242, 235, 59, 32, 196, 47, 60, 29, 204, 41, 61, 26, 36, 185, 60, 10, 27, 16, 189, 18, 140, 4, 189, 169, 80, 128, 188, 244, 200, 41, 189, 1, 63, 28, 189, 228, 229, 14, 189, 222, 31, 120, 188, 160, 180, 173, 58, 178, 73, 232, 60, 44, 231, 84, 188, 224, 133, 4, 187, 242, 78, 237, 188, 0, 70, 146, 184, 1, 208, 10, 61, 118, 88, 148, 60, 48, 48, 32, 188, 208, 62, 27, 59, 160, 194, 31, 188, 113, 120, 0, 61, 134, 119, 154, 60, 23, 210, 42, 61, 116, 67, 27, 189, 128, 202, 34, 58, 96, 54, 166, 186, 62, 72, 146, 60, 92, 14, 21, 60, 212, 238, 80, 60, 148, 90, 22, 60, 123, 83, 152, 188, 130, 247, 165, 188, 220, 154, 226, 188, 158, 57, 186, 60, 93, 152, 161, 188, 37, 126, 0, 61, 128, 0, 186, 185, 153, 4, 151, 188, 68, 36, 112, 60, 186, 0, 159, 60, 147, 79, 29, 61, 27, 211, 35, 189, 46, 72, 108, 188, 187, 208,