#pragma once

#include <cstdint>

const uint8_t layer_2[] = {
28, 0, 0, 0, 84, 70, 76, 51, 20, 0, 32, 0, 28, 0, 24, 0, 20, 0, 16, 0, 12, 0, 0, 0, 8, 0, 4, 0, 20, 0, 0, 0, 28, 0, 0, 0, 156, 0, 0, 0, 244, 0, 0, 0, 196, 149, 0, 0, 212, 149, 0, 0, 80, 153, 0, 0, 3, 0, 0, 0, 1, 0, 0, 0, 16, 0, 0, 0, 0, 0, 10, 0, 16, 0, 12, 0, 8, 0, 4, 0, 10, 0, 0, 0, 12, 0, 0, 0, 28, 0, 0, 0, 60, 0, 0, 0, 15, 0, 0, 0, 115, 101, 114, 118, 105, 110, 103, 95, 100, 101, 102, 97, 117, 108, 116, 0, 1, 0, 0, 0, 4, 0, 0, 0, 140, 255, 255, 255, 3, 0, 0, 0, 4, 0, 0, 0, 8, 0, 0, 0, 111, 117, 116, 112, 117, 116, 95, 48, 0, 0, 0, 0, 1, 0, 0, 0, 4, 0, 0, 0, 202, 253, 255, 255, 4, 0, 0, 0, 16, 0, 0, 0, 107, 101, 114, 97, 115, 95, 116, 101, 110, 115, 111, 114, 95, 49, 48, 53, 0, 0, 0, 0, 2, 0, 0, 0, 52, 0, 0, 0, 4, 0, 0, 0, 220, 255, 255, 255, 6, 0, 0, 0, 4, 0, 0, 0, 19, 0, 0, 0, 67, 79, 78, 86, 69, 82, 83, 73, 79, 78, 95, 77, 69, 84, 65, 68, 65, 84, 65, 0, 8, 0, 12, 0, 8, 0, 4, 0, 8, 0, 0, 0, 5, 0, 0, 0, 4, 0, 0, 0, 19, 0, 0, 0, 109, 105, 110, 95, 114, 117, 110, 116, 105, 109, 101, 95, 118, 101, 114, 115, 105, 111, 110, 0, 7, 0, 0, 0, 204, 148, 0, 0, 196, 148, 0, 0, 180, 1, 0, 0, 156, 0, 0, 0, 148, 0, 0, 0, 116, 0, 0, 0, 4, 0, 0, 0, 102, 254, 255, 255, 4, 0, 0, 0, 96, 0, 0, 0, 16, 0, 0, 0, 0, 0, 0, 0, 8, 0, 14, 0, 8, 0, 4, 0, 8, 0, 0, 0, 16, 0, 0, 0, 36, 0, 0, 0, 0, 0, 6, 0, 8, 0, 4, 0, 6, 0, 0, 0, 4, 0, 0, 0, 0, 0, 0, 0, 12, 0, 24, 0, 20, 0, 16, 0, 12, 0, 4, 0, 12, 0, 0, 0, 129, 43, 37, 164, 143, 171, 16, 118, 2, 0, 0, 0, 2, 0, 0, 0, 4, 0, 0, 0, 6, 0, 0, 0, 50, 46, 49, 55, 46, 48, 0, 0, 210, 254, 255, 255, 4, 0, 0, 0, 16, 0, 0, 0, 49, 46, 53, 46, 48, 0, 0, 0, 0, 0, 0, 0, 0, 0, 0, 0, 132, 104, 255, 255, 242, 254, 255, 255, 4, 0, 0, 0, 0, 1, 0, 0, 0, 0, 0, 0, 0, 0, 0, 0, 0, 0, 0, 0, 0, 0, 0, 0, 0, 0, 0, 0, 0, 0, 0, 0, 0, 0, 0, 0, 0, 0, 0, 0, 0, 0, 0, 0, 0, 0, 0, 0, 0, 0, 0, 0, 0, 0, 0, 0, 0, 0, 0, 0, 0, 0, 0, 0, 0, 0, 0, 0, 0, 0, 0, 0, 0, 0, 0, 0, 0, 0, 0, 0, 0, 0, 0, 0, 0, 0, 0, 0, 0, 0, 0, 0, 0, 0, 0, 0, 0, 0, 0, 0, 0, 0, 0, 0, 0, 0, 0, 0, 0, 0, 0, 0, 0, 0, 0, 0, 0, 0, 0, 0, 0, 0, 0, 0, 0, 0, 0, 0, 0, 0, 0, 0, 0, 0, 0, 0, 0, 0, 0, 0, 0, 0, 0, 0, 0, 0, 0, 0, 0, 0, 0, 0, 0, 0, 0, 0, 0, 0, 0, 0, 0, 0, 0, 0, 0, 0, 0, 0, 0, 0, 0, 0, 0, 0, 0, 0, 0, 0, 0, 0, 0, 0, 0, 0, 0, 0, 0, 0, 0, 0, 0, 0, 0, 0, 0, 0, 0, 0, 0, 0, 0, 0, 0, 0, 0, 0, 0, 0, 0, 0, 0, 0, 0, 0, 0, 0, 0, 0, 0, 0, 0, 0, 0, 0, 0, 0, 0, 0, 0, 0, 0, 0, 0, 0, 0, 0, 0, 0, 0, 0, 0, 0, 0, 0, 0, 0, 0, 0, 0, 0, 0, 0, 0, 0, 0, 0, 0, 0, 0, 0, 0, 0, 0, 0, 0, 0, 6, 0, 8, 0, 4, 0, 6, 0, 0, 0, 4, 0, 0, 0, 0, 147, 0, 0, 28, 255, 172, 188, 211, 186, 0, 61, 164, 34, 212, 188, 234, 215, 146, 188, 116, 237, 16, 61, 251, 57, 0, 61, 108, 176, 247, 187, 175, 150, 229, 60, 19, 80, 26, 61, 38, 93, 151, 60, 215, 149, 88, 60, 177, 142, 28, 189, 119, 43, 64, 59, 181, 49, 164, 188, 68, 130, 146, 188, 68, 3, 44, 188, 247, 72, 240, 187, 49, 172, 14, 189, 0, 219, 1, 61, 199, 130, 12, 61, 54, 153, 6, 189, 28, 6, 132, 60, 204, 17, 33, 189, 241, 118, 209, 58, 108, 237, 186, 188, 37, 29, 175, 188, 96, 196, 158, 60, 112, 9, 145, 60, 197, 99, 219, 188, 147, 17, 2, 189, 142, 98, 10, 188, 144, 74, 42, 188, 138, 55, 7, 189, 248, 114, 42, 61, 81, 187, 34, 189, 175, 214, 143, 59, 18, 240, 85, 188, 107, 84, 146, 188, 21, 200, 171, 188, 85, 186, 6, 189, 91, 142, 231, 188, 3, 212, 3, 189, 174, 209, 25, 189, 2, 22, 32, 61, 87, 17, 6, 186, 212, 44, 32, 188, 113, 236, 34, 61, 128, 129, 96, 60, 19, 211, 224, 60, 134, 162, 181, 60, 218, 28, 149, 187, 38, 11, 39, 61, 108, 231, 178, 60, 39, 226, 129, 188, 46, 69, 30, 187, 141, 187, 7, 189, 43, 205, 15, 189, 203, 132, 29, 189, 44, 106, 38, 61, 163, 214, 166, 60, 105, 77, 226, 58, 115, 132, 71, 60, 70, 5, 210, 187, 169, 221, 39, 189, 90, 88, 33, 61, 132, 231, 196, 187, 103, 151, 226, 187, 77, 253, 7, 189, 15, 9, 99, 188, 142, 64, 159, 187, 87, 83, 118, 188, 169, 130, 162, 60, 124, 164, 20, 189, 246, 44, 24, 188, 62, 159, 214, 60, 248, 159, 234, 184, 153, 179, 250, 59, 48, 21, 9, 188, 35, 11, 141, 59, 112, 130, 13, 61, 126, 20, 64, 60, 131, 228, 91, 188, 248, 86, 203, 188, 69, 57, 36, 189, 126, 2, 93, 60, 44, 81, 109, 60, 226, 86, 43, 59, 178, 32, 93, 58, 200, 102, 20, 189, 25, 254, 165, 187, 96, 10, 1, 189, 172, 232, 34, 189, 173, 211, 217, 60, 126, 15, 41, 61, 236, 198, 118, 188, 88, 6, 153, 60, 192, 248, 175, 60, 208, 121, 207, 60, 30, 213, 89, 58, 252, 163, 1, 188, 142, 122, 230, 60, 130, 109, 230, 185, 134, 6, 37, 61, 0, 220, 1, 61, 108, 246, 8, 189, 141, 38, 32, 61, 26, 83, 16, 189, 226, 237, 249, 188, 4, 1, 112, 60, 169, 75, 203, 60, 130, 237, 211, 188, 37, 97, 118, 188, 224, 63, 70, 186, 178, 34, 10, 59, 24, 110, 35, 189, 27, 139, 43, 60, 98, 80, 107, 58, 131, 21, 246, 188, 107, 229, 221, 60, 212, 145, 2, 189, 192, 253, 40, 189, 162, 217, 5, 189, 190, 241, 6, 188, 231, 39, 2, 187, 230, 236, 216, 188, 32, 25, 34, 61, 232, 153, 44, 55, 55, 112, 202, 186, 188, 254, 208, 188, 189, 154, 216, 60, 83, 39, 43, 189, 122, 182, 231, 60, 245, 61, 85, 187, 128, 45, 176, 188, 58, 128, 167, 60, 34, 112, 38, 189, 192, 84, 0, 61, 125, 86, 8, 188, 170, 189, 37, 189, 167, 210, 164, 187, 229, 49, 15, 61, 5, 191, 254, 187, 219, 204, 226, 188, 21, 140, 201, 188, 247, 249, 34, 61, 247, 14, 2, 189, 12, 227, 187, 187, 191, 21, 151, 188, 51, 46, 127, 60, 10, 170, 217, 188, 117, 4, 173, 60, 21, 173, 14, 60, 35, 127, 21, 61, 38, 224, 153, 59, 179, 201, 149, 188, 211, 173, 16, 188, 154, 63, 196, 187, 13, 239, 194, 186, 254, 245, 6, 189, 2, 108, 211, 60, 88, 186, 138, 188, 254, 142, 122, 60, 184, 211, 27, 189, 167, 173, 6, 189, 225, 7, 151, 60, 20, 61, 207, 188, 182, 186, 225, 60, 81, 152, 29, 61, 60, 125, 32, 61, 179, 98, 22, 189, 17, 159, 212, 59, 239, 95, 3, 188, 98, 235, 3, 61, 227, 152, 140, 60, 237, 54, 123, 60, 88, 169, 23, 61, 164, 71, 189, 60, 126, 58, 18, 61, 45, 156, 161, 60, 178, 135, 205, 184, 222, 246, 160, 59, 70, 176, 242, 188, 235, 161, 251, 58, 132, 138, 1, 61, 113, 218, 182, 187, 60, 158, 135, 60, 240, 172, 177, 60, 41, 122, 75, 188, 101, 194, 155, 188, 86, 78, 65, 60, 223, 193, 152, 188, 189, 176, 28, 61, 239, 52, 84, 60, 182, 211, 154, 188, 52, 103, 199, 188, 171, 33, 28, 61, 188, 143, 46, 188, 114, 251, 31, 60, 224, 170, 132, 188, 45, 247, 174, 60, 78, 33, 73, 188, 63, 233, 254, 59, 165, 248, 90, 60, 67, 238, 120, 187, 210, 208, 62, 188, 118, 232, 185, 60, 131, 206, 42, 59, 149, 152, 151, 188, 133, 163, 175, 56, 145, 142, 204, 59, 88, 248, 7, 61, 46, 113, 13, 61, 15, 124, 180, 188, 28, 93, 8, 60, 3, 104, 80, 187, 159, 22, 89, 60, 15, 20, 44, 189, 41, 193, 100, 59, 247, 160, 243, 188, 225, 191, 10, 189, 141, 7, 22, 189, 12, 127, 193, 188, 50, 131, 36, 186, 220, 17, 17, 189, 118, 24, 5, 61, 25, 57, 12, 189, 5, 174, 11, 189, 244, 132, 161, 188, 96, 239, 11, 61, 191, 13, 250, 187, 107, 29, 221, 188, 212, 180, 3, 189, 235, 56, 20, 60, 54, 230, 228, 60, 21, 171, 195, 58, 218, 97, 8, 189, 44, 40, 186, 58, 12, 35, 232, 60, 107, 227, 177, 187, 220, 133, 63, 187, 219, 168, 35, 189, 57, 35, 145, 188, 87, 96, 206, 188, 6, 41, 3, 188, 98, 230, 63, 188, 75, 50, 163, 60, 26, 40, 77, 60, 185, 69, 46, 61, 121, 223, 94, 184, 53, 3, 204, 60, 57, 200, 22, 189, 25, 131, 208, 188, 14, 152, 225, 188, 4, 139, 60, 188, 124, 139, 102, 188, 39, 246, 177, 60, 201, 52, 191, 60, 173, 103, 73, 188, 84, 184, 240, 188, 217, 3, 163, 188, 2, 35, 201, 188, 6, 242, 26, 61, 185, 190, 8, 189, 183, 173, 244, 188, 43, 0, 152, 186, 185, 180, 190, 188, 218, 255, 67, 187, 186, 165, 44, 61, 191, 27, 209, 188, 149, 102, 104, 60, 97, 165, 32, 61, 125, 41, 21, 60, 47, 213, 253, 188, 103, 49, 28, 61, 234, 206, 12, 187, 40, 187, 185, 60, 84, 190, 214, 59, 243, 74, 134, 188, 89, 245, 62, 188, 166, 187, 15, 189, 223, 232, 26, 61, 24, 214, 28, 189, 22, 243, 33, 60, 125, 158, 146, 188, 90, 229, 113, 60, 200, 37, 231, 60, 93, 151, 135, 187, 174, 221, 130, 188, 229, 23, 44, 60, 74, 90, 139, 59, 43, 234, 172, 188, 222, 66, 138, 59, 74, 109, 178, 186, 49, 3, 144, 60, 120, 1, 112, 59, 87, 55, 0, 186, 129, 7, 246, 60, 20, 8, 173, 188, 91, 76, 210, 60, 109, 48, 199, 188, 90, 76, 9, 61, 233, 176, 29, 189, 30, 252, 182, 188, 234, 99, 224, 188, 241, 26, 75, 59, 52, 60, 194, 59, 26, 174, 198, 188, 239, 27, 251, 188, 198, 166, 30, 189, 41, 217, 9, 189, 253, 121, 188, 188, 208, 211, 186, 60, 34, 114, 140, 60, 128, 108, 6, 189, 57, 69, 39, 189, 131, 132, 22, 61, 174, 130, 166, 188, 53, 57, 15, 189, 203, 29, 231, 59, 240, 24, 77, 187, 121, 253, 243, 188, 170, 188, 93, 60, 190, 123, 201, 187, 16, 142, 217, 187, 144, 249, 23, 60, 121, 65, 209, 60, 0, 239, 77, 60, 109, 147, 230, 59, 22, 128, 138, 188, 52, 254, 150, 188, 200, 71, 79, 60, 200, 220, 227, 188, 97, 52, 219, 59, 125, 75, 30, 186, 29, 59, 16, 61, 135, 36, 11, 189, 56, 41, 150, 60, 63, 116, 76, 188, 32, 51, 13, 61, 77, 160, 126, 60, 99, 32, 22, 189, 1, 209, 25, 61, 126, 18, 129, 188, 215, 252, 0, 61, 206, 227, 194, 186, 224, 22, 114, 60, 246, 89, 120, 58, 249, 19, 173, 59, 31, 76, 242, 188, 126, 20, 59, 188, 33, 10, 198, 60, 63, 210, 175, 187, 11, 57, 140, 60, 82, 118, 116, 60, 161, 97, 105, 59, 208, 72, 115, 60, 105, 221, 210, 60, 180, 48, 42, 61, 164, 187, 27, 61, 245, 146, 191, 188, 126, 54, 69, 60, 216, 226, 116, 187, 88, 89, 244, 60, 206, 90, 144, 59, 2, 210, 34, 61, 180, 116, 202, 60, 37, 34, 169, 188, 98, 226, 15, 61, 9, 228, 45, 61, 66, 25, 32, 188, 237, 206, 4, 189, 191, 144, 110, 60, 166, 137, 23, 61, 67, 189, 23, 61, 201, 35, 149, 60, 219, 28, 0, 61, 187, 154, 31, 189, 240, 145, 172, 188, 68, 128, 161, 187, 46, 65, 43, 189, 88, 230, 251, 60, 69, 12, 24, 61, 169, 7, 199, 60, 21, 143, 176, 60, 202, 216, 6, 189, 128, 200, 164, 188, 160, 51, 187, 60, 209, 217, 241, 60, 240, 75, 129, 188, 179, 52, 135, 188, 98, 2, 214, 60, 170, 144, 38, 188, 150, 232, 228, 188, 57, 45, 13, 189, 150, 127, 147, 188, 250, 102, 31, 189, 48, 200, 6, 189, 47, 153, 4, 188, 166, 136, 251, 59, 128, 180, 4, 189, 196, 69, 6, 189, 41, 105, 182, 60, 237, 194, 222, 59, 140, 25, 230, 58, 68, 181, 33, 61, 111, 147, 21, 189, 206, 240, 2, 60, 5, 61, 241, 60, 165, 140, 93, 57, 234, 213, 11, 188, 153, 193, 245, 60, 238, 113, 135, 188, 120, 156, 164, 60, 148, 57, 45, 59, 249, 47, 108, 60, 22, 102, 13, 61, 172, 46, 11, 188, 124, 112, 72, 60, 219, 14, 72, 188, 198, 143, 242, 60, 138, 44, 8, 189, 84, 116, 250, 60, 250, 25, 42, 58, 176, 176, 93, 59, 42, 64, 188, 60, 186, 235, 34, 188, 118, 222, 16, 61, 178, 93, 125, 188, 62, 245, 18, 61, 225, 74, 77, 60, 233, 221, 11, 59, 185, 32, 213, 57, 86, 121, 27, 60, 186, 239, 31, 61, 105, 48, 33, 189, 29, 61, 12, 60, 227, 58, 132, 187, 221, 63, 46, 189, 100, 233, 43, 189, 62, 199, 120, 188, 81, 8, 225, 60, 89, 187, 29, 189, 221, 81, 213, 188, 13, 57, 175, 60, 44, 44, 47, 188, 142, 49, 24, 61, 18, 65, 13, 189, 74, 135, 124, 60, 98, 214, 63, 187, 22, 40, 20, 189, 179, 101, 35, 61, 188, 146, 13, 189, 226, 160, 148, 60, 148, 65, 150, 188, 74, 163, 114, 188, 137, 5, 9, 61, 245, 125, 13, 61, 228, 207, 21, 61, 206, 127, 125, 59, 37, 199, 252, 59, 12, 34, 38, 188, 139, 162, 206, 60, 61, 86, 34, 189, 139, 32, 10, 189, 155, 73, 171, 188, 14, 89, 28, 61, 69, 151, 177, 187, 50, 201, 117, 60, 178, 4, 13, 61, 22, 218, 248, 187, 246, 178, 36, 61, 83, 252, 129, 60, 69, 235, 169, 188, 241, 209, 251, 188, 197, 8, 10, 187, 134, 206, 145, 188, 219, 253, 116, 188, 34, 244, 218, 59, 82, 76, 152, 60, 158, 108, 29, 188, 190, 32, 114, 60, 240, 185, 126, 188, 212, 13, 183, 60, 123, 204, 26, 61, 7, 35, 14, 188, 9, 19, 107, 59, 191, 197, 145, 188, 253, 167, 215, 188, 253, 34, 71, 188, 93, 65, 74, 186, 205, 20, 243, 60, 132, 138, 168, 60, 5, 7, 30, 189, 171, 3, 9, 189, 211, 131, 245, 188, 85, 151, 240, 58, 186, 77, 136, 188, 3, 174, 249, 187, 236, 101, 1, 189, 203, 112, 79, 60, 19, 99, 212, 60, 157, 122, 16, 61, 146, 95, 128, 55, 100, 115, 250, 60, 136, 156, 240, 188, 128, 14, 206, 58, 115, 201, 2, 188, 245, 188, 23, 61, 93, 139, 168, 187, 235, 113, 13, 189, 232, 118, 37, 189, 89, 95, 36, 61, 97, 220, 142, 188, 62, 149, 247, 60, 255, 195, 180, 60, 23, 104, 12, 189, 106, 123, 172, 188, 9, 202, 20, 188, 144, 177, 9, 59, 107, 149, 35, 61, 101, 134, 208, 60, 212, 208, 119, 60, 37, 107, 205, 187, 198, 243, 111, 188, 65, 90, 224, 188, 44, 195, 244, 58, 101, 111, 97, 59, 15, 254, 19, 58, 44, 73, 155, 60, 98, 171, 164, 60, 23, 75, 7, 60, 87, 4, 220, 185, 67, 101, 133, 60, 203, 243, 209, 60, 209, 51, 241, 187, 228, 246, 107, 60, 243, 205, 28, 61, 31, 148, 10, 60, 114, 205, 49, 188, 103, 130, 71, 60, 36, 88, 131, 60, 183, 139, 39, 189, 246, 115, 5, 61, 78, 179, 38, 189, 137, 126, 111, 60, 214, 242, 18, 61, 89, 84, 13, 188, 28, 192, 192, 188, 68, 142, 35, 61, 182, 199, 191, 60, 147, 26, 232, 59, 210, 197, 142, 188, 250, 191, 247, 59, 208, 118, 241, 59, 250, 134, 182, 188, 218, 196, 21, 61, 160, 216, 181, 188, 125, 6, 195, 188, 239, 183, 218, 60, 173, 65, 39, 61, 144, 157, 44, 188, 32, 101, 14, 189, 112, 224, 2, 188, 150, 69, 220, 187, 175, 39, 55, 188, 177, 18, 155, 60, 138, 255, 143, 187, 241, 135, 180, 188, 250, 153, 27, 188, 247, 247, 245, 60, 217, 216, 246, 188, 15, 203, 28, 61, 225, 118, 222, 60, 199, 4, 205, 188, 7, 171, 252, 60, 42, 139, 209, 188, 211, 113, 120, 187, 84, 21, 177, 60, 76, 234, 45, 189, 39, 53, 0, 60, 63, 31, 127, 188, 181, 223, 120, 59, 167, 0, 2, 189, 145, 253, 129, 188, 183, 1, 45, 60, 78, 208, 30, 189, 129, 129, 246, 60, 223, 39, 117, 59, 166, 84, 80, 59, 164, 208, 88, 60, 169, 231, 171, 188, 70, 106, 186, 60, 69, 239, 253, 60, 113, 110, 9, 60, 59, 70, 204, 58, 199, 224, 14, 61, 213, 220, 69, 60, 61, 159, 144, 60, 46, 47, 177, 188, 67, 251, 42, 61, 38, 44, 65, 60, 62, 235, 219, 188, 0, 244, 223, 60, 175, 246, 0, 189, 139, 9, 43, 61, 184, 74, 99, 187, 119, 128, 71, 57, 63, 68, 251, 188, 158, 129, 242, 187, 84, 77, 212, 58, 138, 17, 42, 61, 239, 80, 44, 61, 177, 158, 1, 60, 146, 82, 2, 60, 20, 229, 53, 60, 168, 17, 17, 189, 219, 102, 206, 188, 80, 48, 17, 189, 44, 35, 44, 189, 64, 196, 23, 189, 65, 182, 23, 60, 188, 82, 3, 61, 182, 71, 150, 60, 72, 8, 133, 188, 248, 57, 171, 60, 60, 188, 180, 60, 252, 176, 13, 61, 4, 223, 106, 188, 180, 105, 164, 188, 73, 240, 50, 187, 61, 126, 180, 188, 88, 232, 105, 60, 70, 133, 168, 59, 205, 102, 174, 187, 166, 236, 16, 189, 99, 130, 152, 59, 220, 228, 36, 61, 89, 95, 254, 188, 50, 131, 244, 188, 131, 25, 35, 61, 179, 122, 29, 61, 81, 132, 99, 59, 99, 100, 248, 60, 14, 224, 19, 61, 218, 189, 208, 60, 160, 119, 237, 188, 207, 252, 35, 188, 196, 104, 100, 57, 63, 57, 26, 189, 21, 241, 8, 188, 134, 171, 46, 61, 215, 185, 82, 60, 167, 108, 141, 188, 192, 221, 169, 60, 158, 223, 114, 60, 28, 232, 68, 59, 225, 119, 146, 58, 199, 213, 164, 186, 120, 128, 14, 61, 51, 217, 23, 189, 147, 11, 59, 188, 191, 210, 109, 59, 251, 30, 161, 60, 221, 134, 211, 187, 236, 173, 206, 59, 28, 145, 232, 187, 7, 5, 142, 188, 39, 109, 182, 188, 206, 36, 14, 186, 246, 178, 69, 60, 167, 129, 23, 61, 124, 46, 62, 188, 250, 71, 14, 188, 49, 74, 214, 60, 124, 39, 11, 189, 111, 201, 12, 60, 45, 56, 216, 188, 234, 18, 253, 60, 152, 33, 191, 188, 249, 188, 152, 60, 135, 202, 80, 60, 216, 114, 32, 61, 88, 227, 0, 61, 197, 198, 148, 187, 229, 93, 187, 58, 173, 204, 39, 61, 165, 135, 73, 60, 3, 53, 186, 187, 239, 111, 16, 189, 225, 59, 122, 60, 120, 194, 24, 61, 192, 155, 33, 189, 28, 61, 193, 187, 140, 140, 36, 60, 218, 184, 204, 188, 25, 38, 229, 188, 246, 27, 17, 189, 205, 246, 26, 61, 195, 222, 20, 61, 167, 123, 8, 61, 129, 145, 175, 60, 190, 238, 85, 188, 119, 117, 9, 61, 105, 176, 243, 60, 41, 22, 141, 59, 44, 23, 148, 59, 51, 228, 171, 188, 169, 64, 199, 188, 93, 42, 252, 188, 220, 121, 207, 188, 34, 165, 165, 60, 207, 204, 18, 61, 149, 200, 38, 189, 234, 73, 8, 189, 36, 118, 137, 188, 254, 122, 219, 188, 154, 192, 252, 188, 74, 5, 198, 60, 83, 230, 59, 59, 228, 95, 198, 187, 227, 54, 97, 188, 17, 16, 45, 188, 205, 28, 49, 60, 34, 87, 233, 58, 254, 32, 45, 189, 184, 10, 201, 188, 119, 44, 59, 188, 227, 192, 177, 188, 102, 67, 78, 60, 184, 34, 13, 61, 243, 20, 159, 59, 174, 24, 36, 61, 96, 252, 145, 188, 204, 27, 89, 188, 111, 217, 21, 189, 72, 117, 220, 59, 32, 166, 13, 189, 210, 240, 159, 188, 63, 166, 195, 60, 195, 50, 30, 61, 70, 74, 61, 60, 45, 47, 171, 60, 83, 59, 40, 189, 220, 193, 87, 188, 86, 152, 189, 60, 114, 71, 7, 61, 178, 33, 16, 189, 208, 8, 100, 58, 163, 117, 8, 189, 130, 236, 163, 188, 202, 45, 142, 188, 49, 167, 37, 189, 161, 84, 204, 188, 188, 61, 33, 61, 123, 118, 196, 58, 22, 67, 198, 60, 6, 239, 252, 60, 198, 48, 3, 61, 248, 206, 184, 187, 72, 175, 18, 189, 168, 252, 227, 60, 84, 162, 10, 61, 127, 152, 41, 60, 148, 173, 154, 60, 24, 210, 176, 60, 112, 205, 67, 59, 135, 71, 102, 185, 223, 247, 26, 61, 75, 89, 138, 186, 61, 169, 133, 188, 217, 123, 23, 61, 90, 177, 210, 188, 87, 157, 16, 61, 135, 128, 211, 188, 127, 203, 20, 189, 43, 66, 229, 188, 239, 250, 23, 189, 47, 14, 16, 61, 63, 156, 15, 61, 38, 168, 3, 188, 28, 196, 59, 60, 224, 226, 46, 189, 213, 39, 216, 58, 126, 105, 24, 186, 225, 217, 74, 188, 112, 57, 24, 60, 248, 109, 16, 189, 176, 202, 35, 61, 209, 155, 7, 189, 236, 220, 195, 60, 75, 172, 28, 189, 138, 127, 143, 60, 198, 195, 193, 188, 111, 140, 121, 188, 52, 221, 35, 61, 92, 42, 225, 60, 207, 163, 243, 60, 244, 191, 2, 189, 44, 136, 139, 188, 255, 59, 171, 188, 72, 255, 16, 61, 191, 188, 197, 188, 77, 212, 132, 188, 208, 93, 45, 61, 99, 116, 22, 61, 255, 5, 133, 60, 182, 139, 76, 60, 63, 95, 153, 60, 99, 169, 237, 60, 116, 25, 31, 61, 32, 253, 135, 187, 205, 225, 178, 60, 222, 118, 5, 61, 202, 98, 21, 61, 13, 20, 45, 60, 187, 159, 61, 184, 81, 149, 30, 189, 179, 80, 6, 188, 231, 84, 165, 187, 92, 195, 174, 60, 91, 12, 213, 186, 113, 159, 11, 188, 28, 36, 95, 60, 206, 63, 22, 61, 116, 157, 14, 61, 156, 243, 61, 188, 51, 55, 33, 189, 154, 172, 44, 188, 248, 155, 70, 60, 8, 215, 68, 188, 70, 136, 45, 188, 239, 34, 202, 60, 163, 108, 231, 60, 199, 152, 221, 188, 137, 55, 154, 60, 161, 226, 62, 60, 87, 209, 129, 188, 201, 21, 113, 60, 248, 158, 22, 61, 136, 192, 205, 188, 24, 118, 29, 61, 95, 163, 123, 60, 7, 102, 164, 188, 187, 198, 12, 58, 188, 218, 253, 60, 129, 40, 149, 188, 117, 28, 32, 61, 185, 222, 126, 60, 43, 75, 202, 188, 240, 17, 162, 60, 131, 47, 186, 188, 87, 82, 167, 60, 41, 97, 12, 61, 18, 105, 159, 188, 185, 229, 193, 188, 59, 212, 128, 187, 42, 11, 24, 60, 232, 40, 199, 60, 35, 153, 22, 189, 115, 73, 179, 60, 45, 71, 193, 60, 149, 182, 13, 60, 223, 207, 43, 61, 211, 102, 155, 188, 206, 1, 232, 185, 3, 126, 66, 60, 245, 139, 98, 60, 153, 16, 131, 58, 6, 126, 45, 189, 87, 76, 13, 61, 215, 8, 135, 186, 114, 8, 72, 60, 86, 52, 43, 189, 123, 237, 40, 189, 26, 147, 214, 188, 234, 41, 238, 60, 60, 62, 130, 188, 36, 178, 167, 188, 24, 16, 26, 59, 241, 198, 161, 60, 95, 18, 17, 189, 175, 210, 22, 189, 169, 2, 26, 61, 41, 194, 198, 188, 132, 243, 163, 58, 68, 111, 216, 187, 164, 244, 152, 59, 213, 135, 255, 60, 169, 15, 24, 61, 218, 33, 211, 186, 96, 32, 21, 189, 32, 231, 1, 187, 206, 54, 113, 188, 240, 162, 220, 188, 219, 44, 3, 189, 237, 147, 21, 189, 116, 18, 42, 61, 163, 139, 219, 188, 9, 165, 141, 60, 193, 96, 69, 60, 212, 118, 153, 60, 172, 4, 171, 59, 251, 166, 112, 188, 220, 226, 4, 189, 234, 17, 4, 61, 152, 95, 75, 59, 16, 211, 105, 188, 255, 90, 197, 60, 18, 158, 36, 188, 155, 157, 26, 61, 142, 189, 41, 60, 134, 200, 180, 60, 6, 191, 175, 188, 12, 60, 81, 60, 115, 184, 9, 188, 185, 30, 234, 187, 26, 210, 5, 189, 20, 154, 13, 60, 24, 238, 210, 188, 82, 0, 153, 188, 78, 173, 33, 60, 66, 3, 255, 188, 151, 110, 146, 188, 76, 152, 38, 61, 35, 218, 8, 189, 135, 18, 31, 61, 53, 5, 243, 59, 250, 20, 85, 58, 21, 158, 145, 59, 134, 215, 120, 188, 83, 88, 70, 188, 43, 19, 191, 187, 7, 194, 43, 61, 232, 153, 215, 186, 34, 183, 184, 60, 222, 105, 20, 61, 89, 193, 25, 61, 230, 58, 201, 59, 255, 178, 58, 188, 247, 195, 7, 60, 10, 134, 226, 59, 253, 91, 168, 188, 240, 215, 173, 188, 136, 208, 15, 188, 196, 25, 2, 61, 87, 65, 231, 188, 77, 209, 160, 188, 147, 154, 138, 188, 181, 49, 69, 188, 236, 226, 249, 188, 168, 70, 187, 186, 220, 232, 14, 61, 152, 210, 15, 61, 105, 218, 2, 61, 148, 35, 144, 188, 109, 17, 213, 60, 23, 146, 5, 189, 84, 152, 23, 189, 255, 5, 9, 61, 225, 145, 243, 60, 151, 114, 26, 60, 251, 155, 56, 188, 3, 64, 15, 61, 43, 73, 23, 188, 193, 192, 8, 189, 41, 9, 236, 188, 162, 94, 63, 188, 97, 26, 44, 188, 132, 76, 19, 189, 249, 53, 222, 60, 254, 35, 34, 61, 170, 73, 29, 189, 227, 209, 253, 59, 67, 134, 217, 60, 121, 72, 120, 59, 29, 246, 168, 188, 50, 35, 72, 59, 169, 188, 21, 61, 21, 128, 36, 189, 58, 79, 75, 187, 72, 222, 224, 187, 112, 116, 25, 60, 218, 255, 176, 60, 89, 230, 172, 188, 220, 48, 208, 60, 175, 204, 110, 60, 121, 141, 18, 189, 58, 40, 186, 60, 50, 152, 160, 58, 11, 140, 205, 60, 149, 163, 46, 189, 53, 174, 155, 60, 16, 48, 75, 188, 231, 75, 23, 60, 132, 85, 147, 60, 113, 156, 255, 59, 139, 64, 254, 60, 65, 200, 138, 188, 206, 253, 83, 188, 154, 189, 38, 61, 217, 150, 238, 188, 12, 229, 110, 59, 150, 82, 1, 61, 9, 54, 109, 188, 163, 225, 84, 188, 195, 37, 15, 61, 121, 148, 44, 187, 123, 198, 169, 188, 158, 37, 172, 188, 36, 222, 38, 189, 147, 73, 214, 59, 101, 84, 27, 61, 3, 191, 139, 188, 228, 67, 104, 188, 127, 130, 9, 189, 218, 165, 28, 61, 239, 245, 22, 61, 6, 43, 176, 188, 61, 214, 213, 188, 204, 29, 73, 188, 219, 254, 196, 60, 14, 132, 14, 188, 127, 27, 77, 59, 63, 178, 138, 56, 53, 165, 205, 188, 76, 1, 35, 61, 250, 43, 167, 58, 0, 72, 27, 187, 49, 70, 19, 61, 142, 110, 94, 188, 251, 132, 156, 60, 59, 146, 133, 188, 96, 135, 150, 60, 128, 131, 197, 59, 111, 24, 230, 188, 23, 14, 59, 188, 29, 111, 178, 188, 131, 20, 201, 58, 33, 114, 28, 61, 14, 32, 251, 60, 220, 41, 13, 61, 82, 84, 244, 188, 50, 187, 68, 187, 224, 210, 82, 60, 208, 71, 113, 188, 80, 57, 158, 188, 13, 62, 48, 60, 86, 0, 238, 188, 91, 159, 217, 188, 3, 66, 66, 60, 77, 192, 47, 188, 207, 107, 138, 188, 31, 195, 50, 59, 19, 232, 34, 189, 40, 137, 1, 60, 231, 31, 14, 188, 176, 152, 60, 188, 38, 178, 193, 188, 73, 32, 39, 189, 234, 94, 45, 61, 15, 201, 21, 61, 194, 233, 97, 60, 42, 179, 39, 189, 225, 159, 1, 60, 171, 71, 234, 187, 17, 9, 150, 188, 26, 245, 150, 188, 208, 167, 35, 189, 243, 220, 28, 61, 50, 39, 255, 60, 153, 97, 144, 60, 114, 78, 235, 59, 123, 194, 2, 188, 45, 33, 121, 59, 37, 78, 131, 188, 29, 120, 36, 189, 131, 45, 194, 60, 203, 5, 39, 189, 12, 246, 176, 60, 234, 230, 144, 60, 213, 7, 45, 61, 20, 174, 109, 58, 31, 145, 40, 189, 157, 248, 42, 189, 83, 4, 86, 188, 76, 35, 40, 189, 30, 114, 179, 60, 17, 212, 1, 189, 124, 61, 180, 188, 25, 205, 18, 61, 222, 184, 157, 188, 183, 97, 170, 188, 108, 74, 146, 188, 3, 203, 43, 189, 209, 115, 126, 188, 229, 218, 226, 60, 11, 94, 179, 58, 19, 109, 121, 60, 84, 13, 147, 188, 139, 199, 190, 60, 80, 213, 24, 188, 98, 181, 186, 188, 211, 155, 67, 188, 56, 187, 196, 188, 74, 5, 109, 59, 68, 187, 60, 60, 27, 14, 134, 188, 117, 198, 201, 59, 14, 6, 30, 60, 227, 85, 16, 188, 90, 225, 188, 188, 188, 129, 32, 61, 63, 153, 109, 60, 216, 144, 170, 188, 106, 93, 220, 188, 211, 177, 189, 188, 31, 117, 34, 189, 195, 44, 27, 188, 187, 167, 169, 60, 182, 219, 12, 61, 57, 132, 175, 59, 44, 136, 19, 189, 89, 76, 29, 61, 140, 8, 173, 60, 117, 240, 153, 188, 89, 22, 163, 188, 103, 180, 221, 188, 149, 5, 10, 189, 0, 152, 24, 60, 255, 41, 3, 61, 130, 101, 42, 189, 40, 187, 0, 189, 70, 246, 241, 60, 92, 3, 11, 189, 179, 80, 11, 189, 182, 29, 8, 189, 95, 145, 144, 188, 139, 230, 70, 58, 217, 222, 207, 188, 126, 14, 164, 60, 242, 93, 235, 60, 86, 32, 96, 188, 236, 2, 43, 61, 116, 54, 135, 60, 15, 109, 126, 59, 73, 29, 135, 188, 11, 185, 171, 188, 202, 152, 42, 188, 173, 193, 10, 60, 209, 113, 249, 60, 249, 58, 140, 60, 194, 248, 30, 189, 152, 147, 31, 61, 190, 41, 8, 60, 80, 142, 9, 61, 113, 109, 19, 188, 195, 246, 35, 187, 41, 36, 251, 188, 96, 244, 102, 60, 132, 56, 197, 60, 15, 2, 111, 188, 110, 98, 200, 188, 82, 192, 104, 188, 99, 140, 24, 189, 33, 239, 118, 188, 92, 43, 222, 188, 107, 31, 25, 189, 51, 3, 238, 60, 170, 182, 144, 187, 66, 191, 1, 189, 252, 241, 1, 189, 106, 123, 3, 189, 134, 90, 200, 188, 202, 107, 171, 188, 180, 54, 183, 188, 82, 18, 11, 61, 98, 46, 60, 60, 109, 197, 215, 188, 242, 113, 152, 188, 35, 21, 193, 60, 39, 157, 209, 188, 122, 9, 8, 61, 172, 24, 180, 188, 69, 211, 191, 60, 119, 63, 191, 60, 79, 200, 145, 59, 39, 31, 173, 187, 119, 25, 133, 186, 132, 123, 243, 60, 109, 129, 157, 188, 102, 232, 118, 185, 196, 177, 39, 189, 98, 4, 169, 188, 113, 197, 237, 58, 197, 124, 241, 60, 80, 238, 4, 189, 206, 74, 167, 187, 232, 237, 30, 60, 171, 128, 3, 59, 34, 23, 12, 189, 1, 73, 239, 188, 64, 102, 194, 188, 108, 47, 45, 189, 140, 101, 36, 61, 25, 152, 13, 61, 46, 143, 201, 60, 36, 31, 76, 60, 128, 162, 227, 188, 233, 69, 13, 189, 50, 241, 189, 60, 14, 241, 127, 59, 227, 206, 183, 60, 245, 205, 123, 60, 30, 96, 184, 188, 47, 112, 147, 60, 9, 229, 203, 60, 181, 244, 130, 60, 11, 179, 41, 61, 181, 23, 112, 60, 195, 84, 10, 188, 89, 87, 237, 60, 183, 110, 208, 188, 165, 63, 139, 59, 78, 240, 129, 59, 196, 57, 217, 188, 73, 166, 117, 188, 131, 48, 147, 60, 245, 134, 203, 60, 121, 37, 248, 188, 253, 188, 79, 60, 157, 112, 35, 188, 200, 2, 239, 188, 146, 180, 250, 188, 165, 36, 43, 61, 21, 250, 20, 189, 158, 233, 173, 187, 46, 96, 32, 61, 211, 109, 90, 60, 220, 94, 157, 60, 7, 48, 63, 187, 171, 100, 254, 188, 225, 63, 223, 188, 169, 206, 56, 60, 187, 43, 213, 188, 62, 69, 217, 188, 244, 252, 151, 60, 189, 166, 135, 60, 218, 37, 190, 59, 241, 181, 91, 59, 55, 61, 88, 60, 30, 203, 60, 60, 11, 68, 232, 60, 252, 138, 245, 188, 161, 54, 130, 188, 29, 153, 1, 61, 232, 135, 186, 59, 40, 225, 75, 59, 169, 160, 147, 188, 122, 35, 131, 188, 156, 76, 73, 187, 66, 55, 197, 186, 182, 195, 11, 189, 47, 187, 220, 188, 229, 200, 211, 59, 222, 145, 37, 189, 124, 203, 24, 61, 9, 180, 170, 60, 55, 146, 20, 189, 150, 21, 243, 188, 114, 138, 186, 60, 50, 94, 36, 189, 179, 215, 62, 60, 214, 157, 176, 188, 70, 182, 205, 60, 159, 206, 134, 59, 73, 200, 36, 189, 192, 110, 22, 61, 245, 203, 166, 60, 245, 159, 157, 60, 138, 255, 77, 60, 72, 91, 228, 188, 247, 152, 237, 58, 224, 228, 173, 60, 123, 72, 214, 59, 138, 251, 7, 189, 227, 48, 238, 59, 220, 199, 17, 189, 49, 214, 130, 59, 97, 253, 37, 188, 154, 182, 11, 60, 125, 169, 175, 188, 194, 146, 44, 189, 201, 38, 26, 188, 80, 197, 176, 59, 66, 243, 58, 59, 88, 182, 215, 188, 39, 8, 35, 61, 134, 74, 11, 189, 96, 90, 107, 60, 126, 202, 192, 188, 124, 41, 158, 60, 224, 189, 166, 187, 111, 191, 181, 60, 116, 251, 139, 188, 47, 152, 140, 60, 181, 218, 100, 56, 129, 226, 125, 186, 222, 228, 98, 60, 40, 250, 130, 60, 165, 174, 19, 60, 20, 25, 228, 60, 4, 209, 198, 60, 34, 100, 72, 60, 25, 243, 160, 188, 155, 40, 7, 189, 90, 165, 10, 61, 55, 103, 12, 189, 61, 50, 212, 60, 147, 92, 221, 188, 168, 77, 11, 188, 118, 70, 181, 60, 228, 67, 189, 60, 105, 76, 142, 186, 225, 232, 98, 60, 180, 68, 74, 60, 159, 13, 210, 60, 138, 179, 5, 189, 114, 97, 254, 188, 102, 63, 88, 60, 246, 198, 5, 61, 36, 180, 23, 189, 32, 192, 242, 188, 140, 136, 10, 189, 59, 200, 96, 187, 182, 207, 101, 59, 56, 91, 162, 183, 214, 21, 2, 189, 121, 205, 121, 188, 175, 139, 14, 189, 189, 186, 182, 187, 55, 102, 214, 59, 173, 175, 69, 188, 120, 146, 216, 187, 143, 188, 20, 189, 73, 177, 99, 188, 113, 139, 216, 59, 145, 186, 7, 60, 104, 67, 252, 188, 239, 157, 246, 57, 149, 118, 196, 60, 12, 159, 251, 188, 69, 28, 250, 59, 27, 61, 198, 188, 109, 218, 184, 60, 0, 225, 255, 188, 3, 53, 26, 188, 112, 171, 162, 60, 148, 129, 161, 188, 249, 14, 77, 188, 131, 145, 211, 188, 254, 241, 118, 188, 16, 168, 38, 61, 161, 235, 254, 188, 97, 93, 34, 61, 2, 130, 30, 60, 217, 6, 162, 60, 164, 11, 27, 60, 254, 6, 173, 188, 68, 147, 31, 61, 115, 232, 161, 188, 121, 185, 24, 61, 97, 3, 53, 188, 32, 94, 2, 59, 169, 87, 41, 189, 64, 171, 250, 60, 155, 189, 145, 188, 127, 35, 15, 61, 66, 34, 5, 188, 151, 103, 235, 187, 242, 55, 39, 61, 85, 23, 91, 187, 67, 188, 173, 185, 134, 162, 101, 188, 205, 11, 125, 59, 177, 251, 98, 188, 102, 146, 22, 189, 213, 90, 174, 60, 204, 173, 234, 60, 3, 226, 97, 60, 69, 253, 236, 60, 6, 17, 60, 60, 53, 83, 160, 60, 66, 152, 162, 60, 51, 6, 138, 188, 133, 85, 81, 60, 213, 76, 142, 188, 2, 90, 188, 60, 172, 128, 23, 60, 83, 42, 8, 61, 4, 245, 115, 188, 137, 98, 38, 61, 12, 184, 194, 59, 11, 248, 39, 61, 41, 152, 35, 61, 4, 120, 228, 188, 126, 25, 39, 61, 165, 93, 39, 189, 125, 130, 38, 61, 112, 39, 26, 189, 139, 103, 11, 61, 76, 240, 88, 187, 180, 238, 151, 188, 152, 15, 23, 189, 72, 73, 28, 61, 177, 84, 70, 60, 187, 56, 99, 59, 18, 119, 217, 59, 172, 97, 174, 60, 83, 147, 188, 60, 59, 252, 194, 187, 234, 207, 96, 188, 150, 255, 51, 188, 129, 19, 118, 57, 7, 136, 27, 61, 138, 92, 146, 60, 72, 190, 13, 189, 218, 101, 114, 187, 226, 239, 12, 188, 165, 160, 126, 60, 217, 146, 55, 60, 176, 196, 228, 59, 198, 101, 98, 186, 196, 100, 17, 59, 74, 104, 142, 60, 64, 69, 46, 189, 176, 108, 210, 188, 144, 0, 156, 188, 2, 2, 78, 60, 246, 186, 68, 60, 185, 239, 41, 61, 232, 221, 9, 189, 17, 186, 229, 188, 177, 121, 135, 59, 112, 137, 23, 189, 76, 213, 113, 58, 233, 130, 129, 188, 68, 86, 18, 189, 254, 157, 36, 189, 56, 197, 6, 188, 200, 95, 35, 61, 184, 123, 157, 60, 226, 188, 28, 189, 122, 178, 13, 61, 110, 46, 41, 61, 222, 108, 39, 189, 116, 220, 164, 60, 162, 97, 213, 60, 248, 239, 38, 189, 41, 68, 173, 60, 121, 165, 198, 60, 135, 26, 104, 188, 78, 210, 242, 60, 234, 36, 25, 60, 5, 38, 152, 60, 126, 205, 43, 61, 200, 49, 11, 61, 228, 218, 157, 59, 125, 73, 153, 60, 22, 251, 94, 60, 44, 135, 194, 60, 36, 59, 17, 61, 124, 204, 211, 59, 224, 108, 62, 60, 11, 128, 113, 60, 105, 40, 10, 60, 22, 69, 39, 189, 35, 58, 16, 61, 165, 169, 1, 189, 141, 110, 228, 188, 25, 97, 243, 58, 103, 176, 189, 60, 207, 77, 90, 59, 218, 117, 140, 60, 229, 82, 50, 188, 92, 76, 0, 188, 221, 87, 26, 189, 233, 145, 45, 187, 215, 77, 34, 61, 246, 46, 248, 60, 204, 12, 6, 60, 153, 152, 234, 188, 242, 192, 45, 61, 114, 180, 39, 61, 191, 93, 87, 188, 219, 109, 116, 60, 188, 9, 147, 60, 110, 145, 85, 60, 107, 122, 30, 189, 172, 86, 12, 189, 143, 222, 56, 188, 117, 45, 88, 59, 53, 26, 242, 188, 159, 145, 78, 60, 144, 89, 169, 188, 10, 110, 22, 61, 134, 24, 110, 185, 19, 181, 129, 188, 41, 184, 151, 60, 243, 123, 10, 61, 245, 19, 219, 188, 98, 97, 250, 60, 107, 203, 200, 60, 170, 201, 4, 61, 130, 106, 243, 188, 32, 115, 13, 61, 93, 163, 216, 188, 27, 100, 44, 189, 130, 51, 192, 188, 49, 146, 24, 60, 151, 211, 219, 60, 11, 89, 179, 187, 228, 61, 235, 59, 111, 247, 124, 187, 219, 49, 1, 60, 52, 205, 149, 188, 10, 230, 39, 61, 136, 81, 174, 187, 206, 136, 142, 188, 54, 167, 202, 60, 118, 144, 156, 57, 250, 141, 141, 187, 233, 241, 246, 188, 170, 221, 203, 60, 213, 102, 47, 60, 59, 99, 18, 189, 255, 152, 15, 187, 40, 196, 121, 188, 198, 143, 59, 60, 185, 218, 58, 188, 8, 115, 208, 188, 196, 253, 62, 188, 55, 233, 150, 187, 111, 214, 36, 188, 51, 121, 31, 60, 9, 82, 36, 61, 99, 2, 168, 188, 86, 239, 200, 60, 36, 83, 236, 188, 247, 35, 39, 60, 8, 210, 46, 189, 97, 117, 178, 187, 254, 194, 217, 188, 199, 53, 1, 61, 11, 93, 194, 188, 19, 21, 148, 188, 70, 104, 207, 60, 104, 164, 1, 58, 249, 66, 144, 59, 68, 179, 247, 187, 253, 2, 246, 188, 50, 115, 217, 188, 110, 207, 211, 60, 32, 122, 107, 60, 242, 120, 209, 60, 181, 59, 40, 189, 134, 202, 55, 188, 166, 204, 33, 189, 237, 224, 190, 188, 97, 251, 194, 60, 187, 51, 138, 188, 27, 89, 11, 189, 163, 3, 9, 189, 235, 134, 36, 189, 107, 48, 103, 188, 184, 154, 152, 59, 210, 157, 109, 60, 117, 84, 209, 187, 148, 50, 26, 60, 80, 53, 93, 187, 139, 81, 203, 188, 22, 152, 141, 60, 136, 66, 62, 188, 79, 28, 1, 61, 103, 35, 3, 189, 176, 138, 222, 188, 5, 40, 138, 188, 137, 84, 211, 188, 212, 99, 24, 61, 43, 127, 177, 188, 111, 214, 19, 189, 59, 87, 221, 59, 84, 67, 226, 60, 230, 223, 188, 188, 225, 55, 17, 61, 227, 201, 39, 61, 179, 98, 18, 189, 45, 0, 19, 189, 254, 252, 4, 188, 147, 83, 149, 188, 27, 227, 194, 188, 208, 45, 22, 189, 232, 228, 220, 60, 127, 169, 8, 61, 254, 222, 32, 189, 11, 58, 35, 61, 35, 80, 161, 188, 219, 144, 40, 189, 95, 206, 63, 60, 21, 185, 32, 189, 68, 21, 24, 61, 195, 255, 253, 60, 139, 46, 247, 60, 23, 114, 79, 60, 15, 152, 67, 60, 212, 249, 143, 60, 10, 1, 38, 61, 59, 182, 33, 189, 112, 227, 254, 187, 227, 192, 41, 61, 192, 75, 36, 189, 193, 198, 93, 188, 210, 158, 26, 60, 213, 178, 189, 188, 189, 132, 9, 61, 122, 225, 87, 60, 206, 135, 81, 59, 171, 151, 10, 188, 122, 36, 190, 187, 211, 241, 24, 189, 172, 188, 39, 189, 98, 252, 175, 59, 163, 114, 13, 189, 181, 131, 149, 60, 128, 130, 21, 189, 64, 254, 44, 188, 8, 137, 95, 188, 199, 162, 65, 59, 26, 226, 113, 60, 99, 65, 19, 188, 96, 25, 40, 189, 64, 238, 164, 188, 10, 103, 27, 189, 247, 163, 35, 189, 12, 106, 139, 188, 123, 101, 130, 60, 41, 45, 83, 188, 10, 222, 10, 187, 100, 204, 83, 59, 128, 50, 30, 188, 58, 14, 25, 61, 233, 38, 76, 188, 41, 140, 2, 189, 24, 34, 127, 59, 156, 161, 189, 60, 135, 53, 84, 59, 129, 182, 18, 189, 211, 3, 243, 60, 63, 48, 32, 187, 127, 203, 48, 188, 228, 99, 210, 60, 164, 210, 243, 188, 229, 170, 171, 60, 49, 34, 53, 188, 63, 97, 44, 61, 207, 171, 116, 59, 221, 206, 210, 59, 90, 134, 153, 56, 214, 109, 203, 58, 240, 44, 232, 59, 85, 15, 93, 187, 73, 140, 4, 58, 112, 244, 44, 189, 232, 105, 46, 61, 12, 70, 31, 61, 17, 119, 16, 61, 130, 44, 45, 189, 104, 151, 149, 188, 9, 66, 0, 189, 56, 173, 242, 188, 31, 1, 234, 60, 90, 110, 30, 61, 0, 25, 82, 188, 199, 185, 8, 61, 253, 5, 159, 59, 248, 45, 232, 59, 207, 103, 106, 59, 150, 157, 192, 188, 227, 165, 28, 187, 72, 223, 32, 189, 57, 136, 192, 60, 135, 76, 211, 188, 188, 68, 210, 60, 200, 29, 183, 59, 69, 62, 197, 188, 206, 194, 13, 61, 170, 62, 40, 61, 244, 243, 10, 61, 88, 26, 36, 189, 51, 101, 28, 189, 250, 34, 31, 189, 230, 133, 10, 61, 203, 66, 14, 189, 167, 9, 33, 60, 152, 23, 171, 60, 67, 27, 186, 188, 47, 8, 22, 61, 85, 98, 94, 188, 185, 39, 16, 189, 118, 15, 34, 60, 112, 12, 95, 188, 162, 45, 219, 59, 180, 236, 146, 188, 95, 12, 254, 188, 190, 209, 135, 59, 60, 102, 93, 188, 6, 166, 1, 189, 113, 253, 178, 60, 54, 177, 14, 189, 200, 99, 129, 60, 142, 89, 137, 188, 3, 89, 20, 56, 137, 195, 41, 60, 250, 94, 162, 188, 249, 6, 21, 189, 24, 47, 201, 187, 161, 37, 31, 186, 200, 64, 159, 60, 144, 187, 250, 187, 128, 94, 237, 60, 234, 103, 136, 186, 101, 236, 3, 188, 96, 57, 139, 60, 64, 223, 127, 185, 82, 14, 55, 187, 121, 97, 194, 60, 227, 235, 229, 188, 191, 36, 246, 188, 200, 180, 40, 187, 47, 89, 255, 60, 162, 182, 3, 189, 157, 165, 14, 189, 199, 147, 182, 188, 125, 148, 156, 60, 73, 43, 19, 61, 42, 2, 154, 187, 96, 164, 18, 61, 212, 135, 209, 188, 64, 60, 230, 59, 240, 236, 255, 60, 59, 24, 255, 60, 194, 240, 6, 189, 50, 17, 201, 60, 255, 151, 167, 60, 30, 64, 128, 188, 104, 9, 231, 60, 37, 226, 36, 186, 159, 104, 130, 187, 33, 13, 187, 188, 79, 153, 203, 60, 140, 243, 228, 188, 62, 38, 236, 187, 235, 149, 136, 188, 63, 211, 8, 189, 121, 41, 101, 188, 34, 100, 23, 61, 146, 219, 150, 188, 190, 126, 36, 188, 238, 94, 22, 189, 243, 204, 178, 60, 93, 62, 64, 188, 86, 28, 46, 61, 150, 29, 89, 59, 95, 150, 20, 188, 164, 160, 26, 61, 110, 158, 158, 188, 236, 113, 239, 60, 89, 138, 117, 188, 47, 15, 17, 58, 200, 168, 41, 61, 76, 193, 215, 60, 197, 58, 174, 188, 101, 34, 151, 188, 33, 205, 228, 60, 208, 160, 122, 60, 109, 142, 40, 188, 188, 240, 108, 60, 251, 245, 27, 189, 58, 88, 11, 59, 69, 142, 186, 60, 129, 160, 160, 60, 1, 69, 42, 188, 234, 155, 191, 187, 16, 81, 41, 188, 246, 179, 27, 189, 216, 153, 18, 60, 152, 57, 30, 60, 223, 173, 12, 61, 2, 193, 229, 188, 157, 239, 131, 185, 138, 50, 80, 60, 183, 236, 43, 189, 153, 53, 170, 188, 207, 82, 27, 189, 96, 159, 245, 187, 40, 3, 229, 59, 14, 110, 131, 59, 67, 38, 71, 187, 133, 114, 249, 60, 252, 32, 149, 188, 198, 59, 112, 188, 153, 20, 238, 60, 93, 58, 161, 187, 253, 235, 176, 188, 208, 3, 38, 187, 62, 143, 232, 60, 87, 31, 41, 61, 244, 117, 207, 60, 223, 39, 86, 188, 131, 152, 77, 60, 190, 246, 8, 189, 38, 184, 33, 61, 206, 141, 102, 59, 103, 222, 196, 60, 191, 183, 239, 60, 138, 11, 196, 60, 158, 66, 165, 188, 169, 32, 36, 61, 217, 39, 11, 189, 235, 235, 12, 60, 163, 138, 42, 61, 54, 44, 23, 61, 195, 159, 87, 60, 164, 147, 1, 189, 81, 149, 227, 60, 181, 86, 191, 60, 83, 37, 138, 188, 230, 61, 14, 61, 150, 132, 158, 186, 1, 241, 9, 189, 150, 52, 171, 57, 201, 80, 76, 60, 8, 193, 3, 189, 138, 149, 220, 188, 118, 129, 197, 60, 138, 180, 106, 60, 100, 134, 28, 61, 234, 93, 125, 60, 65, 167, 255, 188, 14, 187, 11, 59, 246, 90, 222, 188, 167, 162, 229, 188, 133, 188, 134, 60, 164, 180, 206, 188, 34, 150, 2, 61, 49, 231, 16, 61, 57, 102, 30, 61, 96, 221, 45, 189, 194, 103, 28, 61, 255, 173, 252, 188, 224, 175, 165, 188, 252, 108, 52, 188, 189, 50, 29, 189, 15, 36, 10, 189, 244, 9, 202, 59, 121, 192, 7, 61, 65, 220, 100, 60, 182, 233, 117, 60, 194, 132, 217, 188, 188, 168, 120, 60, 197, 13, 156, 188, 10, 200, 36, 189, 229, 34, 27, 60, 221, 237, 183, 187, 7, 141, 228, 187, 196, 103, 110, 60, 193, 179, 177, 186, 188, 54, 66, 188, 42, 203, 203, 186, 250, 69, 218, 60, 29, 166, 26, 60, 47, 231, 151, 59, 85, 9, 207, 188, 132, 61, 131, 187, 74, 24, 23, 189, 35, 80, 129, 59, 114, 244, 58, 187, 4, 65, 2, 60, 127, 199, 21, 189, 183, 50, 71, 188, 106, 174, 34, 189, 131, 221, 13, 61, 214, 94, 250, 60, 99, 246, 143, 59, 200, 162, 231, 60, 143, 32, 14, 186, 135, 8, 229, 59, 225, 156, 28, 189, 84, 230, 18, 189, 38, 2, 182, 60, 71, 172, 100, 188, 153, 130, 110, 60, 114, 42, 18, 61, 43, 53, 36, 61, 61, 139, 13, 61, 72, 162, 242, 188, 18, 251, 67, 60, 206, 11, 222, 60, 168, 54, 150, 60, 173, 88, 133, 60, 86, 227, 182, 188, 194, 186, 164, 188, 75, 113, 126, 60, 27, 217, 182, 60, 253, 68, 105, 188, 19, 201, 29, 61, 121, 208, 21, 189, 59, 190, 194, 188, 45, 221, 150, 188, 202, 94, 178, 188, 129, 126, 37, 187, 145, 64, 233, 188, 251, 164, 122, 59, 82, 232, 220, 187, 133, 138, 108, 60, 43, 197, 65, 60, 133, 79, 7, 61, 162, 28, 6, 189, 85, 141, 9, 187, 181, 55, 55, 60, 123, 75, 80, 60, 8, 112, 198, 60, 103, 123, 46, 60, 184, 33, 255, 187, 117, 102, 248, 187, 110, 170, 18, 189, 214, 92, 164, 58, 144, 57, 196, 60, 36, 4, 54, 60, 140, 133, 238, 188, 232, 164, 202, 187, 249, 58, 198, 187, 129, 224, 9, 61, 119, 36, 209, 188, 80, 98, 45, 61, 66, 171, 36, 189, 228, 222, 156, 59, 101, 76, 179, 187, 174, 129, 30, 189, 79, 127, 13, 61, 53, 118, 209, 188, 204, 2, 193, 58, 146, 212, 63, 60, 235, 122, 150, 188, 147, 70, 150, 188, 107, 168, 254, 188, 148, 128, 96, 59, 253, 252, 23, 61, 11, 217, 42, 61, 71, 226, 7, 189, 25, 227, 35, 61, 100, 54, 25, 188, 137, 221, 244, 59, 54, 15, 223, 188, 163, 84, 255, 188, 57, 51, 209, 58, 114, 31, 99, 60, 51, 244, 229, 188, 201, 10, 178, 188, 113, 82, 81, 188, 140, 199, 35, 189, 175, 97, 107, 187, 112, 63, 237, 188, 106, 38, 155, 60, 88, 18, 42, 61, 253, 50, 10, 61, 61, 132, 28, 189, 242, 53, 7, 59, 173, 65, 251, 60, 174, 214, 73, 188, 200, 94, 22, 61, 67, 162, 44, 60, 190, 176, 45, 61, 44, 132, 168, 60, 207, 6, 253, 60, 90, 55, 239, 187, 102, 221, 141, 60, 48, 0, 230, 187, 165, 100, 41, 189, 60, 10, 170, 57, 18, 249, 198, 60, 188, 181, 239, 60, 1, 38, 160, 58, 45, 61, 11, 61, 242, 20, 182, 59, 41, 51, 5, 61, 63, 90, 62, 60, 3, 131, 194, 188, 233, 56, 9, 189, 98, 77, 28, 61, 72, 104, 178, 60, 91, 182, 42, 61, 81, 38, 183, 188, 74, 1, 21, 189, 160, 16, 209, 60, 128, 12, 118, 188, 201, 203, 37, 189, 121, 139, 39, 61, 114, 87, 6, 188, 136, 49, 8, 61, 22, 200, 227, 60, 247, 180, 221, 187, 246, 250, 138, 186, 76, 45, 186, 186, 252, 200, 25, 61, 29, 166, 57, 59, 8, 215, 214, 59, 220, 26, 15, 61, 221, 87, 156, 59, 22, 132, 25, 189, 216, 232, 5, 189, 69, 179, 23, 188, 200, 214, 55, 59, 131, 130, 46, 189, 164, 229, 61, 188, 117, 81, 188, 187, 14, 37, 197, 60, 69, 115, 46, 61, 221, 158, 25, 189, 26, 174, 229, 57, 181, 234, 44, 61, 218, 255, 96, 188, 193, 104, 173, 188, 202, 150, 126, 59, 148, 65, 39, 188, 11, 10, 6, 189, 166, 183, 2, 61, 139, 121, 130, 188, 250, 112, 155, 188, 171, 94, 92, 60, 133, 94, 44, 61, 237, 118, 24, 61, 245, 35, 34, 189, 70, 53, 216, 60, 118, 138, 102, 60, 73, 207, 44, 61, 192, 185, 150, 188, 79, 254, 179, 188, 97, 52, 219, 59, 32, 108, 243, 187, 149, 213, 0, 189, 174, 51, 27, 189, 219, 97, 46, 61, 108, 99, 42, 61, 182, 153, 199, 60, 231, 228, 33, 188, 121, 251, 90, 188, 57, 33, 205, 60, 146, 61, 194, 188, 15, 64, 150, 188, 43, 32, 46, 60, 90, 106, 186, 60, 150, 208, 229, 188, 76, 192, 203, 188, 71, 223, 143, 188, 190, 71, 165, 60, 38, 124, 130, 60, 116, 149, 137, 187, 155, 105, 198, 186, 246, 79, 209, 186, 206, 223, 131, 188, 107, 238, 155, 187, 160, 111, 4, 61, 8, 255, 156, 59, 53, 250, 38, 188, 245, 183, 150, 60, 178, 24, 225, 60, 26, 25, 181, 187, 150, 143, 42, 61, 39, 246, 220, 188, 102, 86, 174, 60, 229, 158, 9, 189, 196, 115, 77, 188, 129, 233, 168, 188, 35, 161, 175, 60, 124, 77, 42, 189, 210, 78, 148, 188, 97, 48, 31, 61, 131, 22, 141, 188, 27, 237, 37, 188, 222, 238, 130, 59, 169, 94, 15, 61, 56, 149, 150, 60, 22, 43, 214, 185, 248, 52, 187, 60, 219, 114, 155, 60, 191, 81, 15, 189, 9, 88, 4, 61, 61, 220, 184, 60, 102, 7, 252, 59, 141, 58, 28, 60, 219, 76, 144, 188, 214, 87, 239, 188, 118, 75, 233, 60, 215, 67, 179, 188, 86, 162, 20, 60, 184, 91, 23, 61, 149, 180, 12, 61, 47, 26, 31, 189, 198, 151, 199, 60, 116, 241, 213, 60, 142, 188, 25, 61, 204, 146, 158, 59, 71, 164, 151, 59, 237, 90, 26, 61, 228, 99, 255, 188, 185, 85, 3, 188, 210, 224, 28, 189, 185, 200, 161, 60, 197, 247, 200, 60, 177, 68, 206, 188, 180, 80, 224, 60, 54, 85, 53, 188, 197, 85, 166, 188, 220, 84, 4, 188, 136, 201, 165, 58, 141, 60, 17, 189, 187, 102, 167, 187, 223, 3, 191, 60, 97, 84, 191, 60, 19, 209, 167, 60, 38, 21, 163, 60, 202, 199, 33, 61, 45, 245, 252, 60, 245, 227, 120, 60, 225, 180, 65, 60, 3, 119, 1, 189, 36, 106, 46, 61, 45, 11, 221, 59, 237, 113, 3, 188, 227, 52, 133, 60, 112, 136, 173, 60, 149, 108, 148, 60, 192, 143, 218, 188, 164, 32, 211, 188, 104, 144, 237, 187, 152, 19, 13, 189, 56, 191, 21, 61, 215, 176, 125, 60, 39, 4, 136, 59, 12, 130, 32, 61, 78, 205, 206, 60, 150, 42, 186, 60, 29, 181, 4, 61, 19, 249, 21, 189, 244, 47, 208, 60, 207, 14, 39, 189, 199, 82, 162, 188, 92, 72, 213, 188, 177, 143, 131, 60, 254, 229, 204, 188, 190, 129, 14, 189, 77, 204, 168, 187, 63, 98, 217, 60, 75, 102, 196, 60, 87, 90, 9, 189, 92, 30, 220, 187, 178, 155, 36, 189, 255, 63, 42, 61, 10, 92, 157, 188, 145, 28, 5, 61, 120, 72, 31, 61, 52, 172, 99, 188, 174, 137, 15, 189, 81, 59, 193, 188, 180, 164, 42, 189, 157, 116, 241, 188, 206, 30, 225, 60, 119, 56, 35, 61, 124, 88, 199, 186, 232, 1, 60, 60, 142, 220, 160, 188, 9, 41, 169, 187, 175, 229, 7, 189, 160, 121, 41, 61, 167, 96, 145, 60, 26, 243, 246, 60, 94, 241, 3, 61, 242, 210, 189, 60, 190, 183, 94, 60, 133, 132, 253, 187, 221, 27, 237, 60, 51, 113, 176, 187, 129, 147, 140, 188, 140, 189, 11, 61, 155, 42, 134, 188, 52, 47, 42, 188, 202, 121, 133, 188, 95, 188, 171, 60, 134, 49, 162, 59, 125, 38, 6, 61, 249, 33, 129, 57, 94, 45, 206, 60, 124, 138, 223, 188, 225, 26, 213, 187, 73, 133, 224, 188, 215, 125, 61, 60, 231, 33, 244, 188, 48, 162, 168, 60, 244, 185, 45, 189, 249, 199, 15, 59, 246, 35, 10, 189, 200, 179, 221, 59, 199, 71, 164, 60, 237, 53, 28, 189, 129, 103, 224, 60, 229, 195, 9, 61, 15, 107, 163, 60, 214, 151, 184, 60, 181, 107, 150, 188, 222, 228, 197, 60, 129, 40, 31, 59, 120, 182, 205, 188, 93, 138, 192, 60, 11, 84, 13, 189, 148, 149, 113, 186, 205, 10, 240, 60, 220, 133, 31, 189, 71, 41, 107, 59, 18, 27, 10, 61, 6, 31, 19, 61, 76, 241, 140, 60, 108, 248, 27, 61, 185, 220, 208, 188, 158, 40, 13, 61, 24, 59, 123, 186, 91, 114, 43, 61, 36, 225, 3, 189, 59, 57, 73, 60, 142, 138, 241, 59, 12, 68, 174, 60, 171, 224, 9, 61, 101, 196, 143, 60, 92, 12, 212, 185, 84, 228, 34, 61, 0, 193, 21, 61, 103, 27, 195, 188, 5, 118, 224, 186, 165, 209, 170, 60, 237, 145, 107, 188, 59, 153, 130, 60, 211, 31, 158, 188, 73, 9, 37, 189, 70, 83, 195, 60, 150, 238, 27, 61, 55, 96, 27, 189, 252, 195, 84, 188, 138, 129, 255, 60, 53, 52, 3, 189, 40, 243, 113, 188, 165, 197, 248, 188, 117, 98, 238, 59, 243, 229, 14, 61, 162, 246, 157, 60, 223, 180, 130, 188, 5, 166, 172, 60, 123, 107, 168, 60, 251, 197, 9, 189, 211, 52, 68, 187, 35, 6, 212, 60, 107, 142, 43, 187, 195, 170, 199, 188, 42, 146, 1, 189, 243, 64, 233, 188, 66, 207, 44, 59, 95, 81, 2, 61, 70, 45, 38, 61, 238, 24, 176, 188, 133, 149, 7, 189, 86, 232, 206, 60, 201, 185, 208, 187, 31, 161, 253, 188, 184, 222, 242, 188, 52, 227, 236, 60, 250, 8, 3, 60, 191, 114, 188, 60, 68, 45, 186, 187, 13, 38, 237, 188, 88, 227, 1, 60, 78, 169, 170, 60, 235, 235, 239, 59, 81, 235, 8, 61, 136, 230, 23, 189, 231, 48, 27, 60, 113, 108, 87, 188, 76, 73, 184, 60, 20, 248, 112, 60, 125, 255, 125, 183, 30, 86, 184, 188, 34, 69, 27, 189, 38, 181, 126, 58, 34, 173, 208, 187, 197, 103, 93, 188, 247, 147, 19, 61, 52, 240, 34, 61, 211, 232, 139, 188, 198, 254, 219, 60, 179, 66, 157, 188, 132, 221, 86, 60, 173, 203, 197, 60, 101, 165, 133, 187, 112, 62, 199, 188, 160, 194, 147, 60, 97, 56, 27, 189, 39, 115, 212, 59, 36, 181, 82, 60, 40, 23, 174, 187, 1, 73, 219, 60, 160, 187, 157, 188, 80, 237, 9, 189, 189, 59, 45, 61, 82, 149, 42, 189, 163, 158, 11, 189, 219, 205, 241, 60, 65, 133, 6, 61, 13, 79, 10, 189, 232, 140, 96, 188, 84, 116, 255, 60, 159, 203, 19, 189, 139, 110, 144, 59, 140, 63, 34, 187, 246, 175, 182, 187, 206, 203, 39, 188, 206, 161, 39, 189, 125, 103, 203, 60, 223, 219, 51, 60, 16, 88, 18, 189, 202, 201, 13, 187, 217, 195, 209, 60, 116, 150, 134, 60, 45, 175, 184, 59, 42, 47, 162, 188, 57, 110, 173, 188, 192, 169, 76, 188, 186, 181, 100, 186, 120, 7, 168, 60, 78, 65, 164, 188, 66, 131, 153, 59, 146, 44, 50, 59, 213, 215, 119, 188, 117, 158, 6, 188, 166, 67, 90, 188, 17, 5, 11, 189, 1, 20, 148, 188, 72, 27, 36, 61, 127, 240, 198, 60, 78, 248, 239, 188, 46, 206, 107, 60, 82, 13, 92, 188, 124, 188, 86, 60, 117, 20, 222, 60, 179, 50, 155, 60, 248, 1, 138, 188, 98, 155, 27, 189, 139, 240, 134, 187, 96, 143, 153, 188, 89, 101, 137, 188, 222, 78, 63, 188, 148, 71, 140, 60, 110, 74, 141, 60, 72, 66, 239, 187, 20, 72, 199, 60, 103, 134, 49, 187, 119, 113, 243, 58, 151, 74, 24, 61, 233, 82, 43, 61, 59, 30, 93, 60, 187, 99, 192, 188, 190, 171, 23, 60, 15, 145, 108, 188, 124, 217, 79, 188, 197, 26, 248, 60, 38, 58, 7, 61, 161, 22, 42, 189, 0, 198, 210, 60, 88, 204, 135, 188, 196, 128, 75, 187, 134, 226, 141, 188, 101, 18, 27, 189, 222, 175, 153, 60, 129, 147, 96, 58, 199, 88, 226, 188, 234, 234, 177, 187, 228, 33, 248, 60, 13, 35, 121, 187, 95, 163, 19, 61, 214, 144, 14, 189, 187, 139, 12, 188, 88, 237, 214, 60, 72, 167, 22, 189, 48, 175, 179, 59, 243, 196, 23, 188, 132, 217, 28, 61, 97, 204, 191, 60, 134, 157, 175, 56, 40, 108, 27, 189, 15, 25, 93, 188, 144, 250, 8, 60, 250, 41, 11, 189, 219, 57, 26, 189, 170, 22, 205, 188, 237, 164, 63, 188, 213, 42, 20, 189, 168, 223, 5, 61, 227, 127, 8, 188, 140, 67, 140, 57, 115, 185, 195, 58, 48, 55, 33, 189, 7, 185, 224, 60, 251, 14, 254, 187, 2, 242, 1, 60, 215, 70, 151, 188, 31, 93, 176, 60, 228, 102, 22, 189, 98, 32, 42, 189, 206, 62, 35, 61, 18, 108, 222, 188, 50, 2, 99, 187, 60, 210, 26, 189, 183, 41, 36, 189, 158, 63, 224, 60, 179, 202, 135, 60, 131, 208, 5, 188, 34, 83, 44, 188, 209, 0, 32, 60, 49, 128, 231, 60, 144, 121, 128, 188, 2, 202, 45, 187, 114, 200, 128, 60, 216, 94, 227, 60, 247, 71, 14, 61, 182, 189, 41, 189, 27, 19, 21, 189, 202, 155, 27, 61, 65, 37, 79, 188, 89, 179, 230, 58, 78, 18, 211, 188, 146, 158, 16, 61, 180, 80, 211, 186, 2, 137, 23, 61, 156, 55, 98, 60, 1, 45, 216, 188, 41, 114, 144, 60, 81, 209, 194, 186, 30, 52, 164, 60, 79, 69, 1, 61, 29, 210, 19, 61, 32, 87, 192, 60, 23, 70, 4, 61, 186, 41, 144, 60, 109, 58, 40, 61, 250, 62, 143, 188, 157, 181, 182, 185, 40, 252, 12, 189, 95, 246, 83, 188, 67, 16, 142, 60, 93, 20, 76, 188, 33, 90, 85, 59, 125, 177, 248, 60, 226, 113, 205, 60, 101, 65, 33, 61, 62, 167, 34, 189, 191, 253, 82, 187, 42, 203, 212, 188, 162, 138, 186, 60, 240, 137, 4, 61, 166, 198, 24, 60, 213, 28, 108, 188, 190, 24, 194, 60, 102, 78, 193, 188, 96, 91, 40, 188, 133, 5, 73, 58, 132, 113, 21, 61, 49, 59, 34, 189, 134, 133, 211, 188, 11, 242, 7, 189, 42, 175, 20, 189, 163, 120, 230, 188, 236, 101, 155, 187, 217, 140, 228, 60, 46, 151, 136, 60, 190, 173, 203, 187, 83, 91, 0, 61, 56, 100, 215, 60, 82, 199, 34, 60, 179, 139, 12, 189, 52, 255, 8, 189, 59, 44, 42, 61, 90, 143, 242, 60, 136, 175, 221, 188, 4, 194, 229, 188, 246, 253, 194, 188, 147, 188, 251, 188, 41, 254, 94, 188, 54, 210, 169, 60, 248, 56, 3, 60, 52, 207, 39, 189, 32, 253, 250, 188, 46, 213, 13, 61, 183, 162, 132, 188, 43, 208, 243, 187, 189, 110, 142, 188, 144, 82, 39, 189, 234, 222, 250, 60, 110, 116, 38, 188, 131, 229, 185, 60, 52, 213, 158, 59, 223, 92, 226, 59, 147, 237, 161, 188, 52, 152, 9, 188, 191, 80, 111, 187, 232, 8, 23, 189, 138, 236, 232, 60, 246, 109, 24, 189, 250, 8, 165, 60, 239, 247, 19, 189, 231, 63, 194, 188, 137, 207, 223, 188, 174, 58, 131, 60, 211, 129, 40, 188, 94, 30, 27, 189, 218, 90, 53, 60, 46, 239, 179, 60, 120, 50, 41, 188, 179, 156, 34, 61, 97, 179, 156, 59, 242, 228, 200, 188, 237, 5, 152, 188, 142, 145, 198, 59, 189, 44, 35, 187, 237, 235, 152, 59, 159, 68, 27, 61, 16, 222, 112, 188, 29, 32, 221, 60, 40, 228, 132, 188, 63, 33, 97, 59, 144, 234, 39, 189, 230, 69, 200, 187, 140, 198, 233, 187, 113, 246, 64, 60, 44, 53, 15, 59, 246, 106, 13, 59, 4, 27, 160, 60, 154, 253, 133, 187, 61, 103, 195, 59, 126, 231, 148, 188, 49, 66, 144, 188, 244, 69, 17, 189, 90, 192, 15, 186, 75, 127, 5, 61, 164, 193, 203, 187, 70, 82, 23, 189, 92, 86, 147, 187, 195, 80, 42, 189, 239, 183, 144, 188, 133, 30, 69, 188, 227, 7, 248, 60, 54, 204, 115, 188, 221, 46, 67, 188, 64, 88, 31, 61, 25, 85, 12, 61, 42, 236, 49, 60, 255, 47, 106, 60, 142, 94, 5, 60, 14, 201, 238, 188, 126, 150, 145, 59, 115, 74, 19, 61, 68, 175, 199, 188, 114, 2, 226, 59, 225, 161, 1, 61, 155, 146, 130, 188, 67, 128, 212, 60, 139, 73, 6, 61, 184, 126, 2, 188, 213, 214, 156, 60, 203, 76, 34, 61, 168, 169, 246, 60, 192, 139, 57, 58, 33, 131, 246, 60, 112, 54, 137, 187, 90, 85, 2, 189, 28, 57, 41, 189, 124, 20, 83, 187, 161, 212, 235, 187, 64, 117, 171, 60, 88, 19, 14, 61, 106, 104, 20, 189, 51, 230, 24, 61, 177, 252, 43, 188, 89, 252, 3, 189, 92, 20, 122, 188, 134, 222, 156, 60, 159, 225, 185, 60, 164, 235, 6, 189, 97, 198, 146, 60, 154, 148, 1, 59, 26, 176, 187, 59, 114, 205, 32, 61, 106, 58, 13, 189, 197, 68, 240, 60, 171, 217, 166, 60, 222, 140, 154, 188, 219, 209, 139, 187, 208, 86, 51, 188, 108, 83, 176, 188, 188, 126, 107, 60, 220, 233, 177, 188, 170, 244, 38, 61, 205, 23, 211, 60, 129, 255, 38, 61, 29, 202, 213, 60, 44, 255, 18, 189, 153, 79, 168, 188, 106, 207, 195, 60, 228, 236, 3, 189, 189, 147, 96, 60, 113, 51, 240, 188, 130, 241, 229, 188, 31, 33, 14, 59, 126, 18, 239, 59, 94, 33, 5, 188, 239, 255, 208, 188, 76, 211, 227, 188, 232, 183, 87, 60, 200, 32, 44, 60, 11, 178, 197, 188, 3, 163, 217, 188, 115, 65, 220, 188, 17, 147, 139, 188, 153, 64, 12, 61, 38, 201, 40, 188, 7, 205, 160, 60, 122, 5, 0, 61, 84, 152, 219, 188, 16, 218, 212, 60, 76, 68, 11, 189, 74, 206, 35, 61, 97, 208, 100, 188, 73, 215, 12, 59, 168, 96, 1, 189, 69, 163, 192, 188, 174, 144, 29, 61, 101, 49, 196, 188, 82, 143, 119, 188, 175, 152, 197, 60, 166, 178, 26, 61, 98, 51, 231, 60, 8, 251, 8, 59, 9, 132, 200, 188, 116, 153, 9, 61, 65, 230, 0, 189, 141, 2, 25, 189, 41, 184, 17, 59, 66, 155, 38, 189, 215, 78, 34, 61, 171, 140, 58, 188, 27, 188, 132, 187, 75, 102, 175, 60, 67, 101, 174, 188, 205, 136, 30, 60, 14, 188, 209, 60, 192, 126, 242, 188, 93, 181, 30, 189, 168, 75, 16, 189, 193, 156, 184, 60, 228, 41, 15, 189, 114, 246, 19, 189, 130, 101, 241, 188, 50, 144, 130, 187, 233, 50, 215, 188, 2, 217, 181, 188, 5, 101, 20, 61, 230, 141, 174, 60, 86, 218, 21, 188, 17, 30, 16, 189, 88, 179, 23, 61, 222, 13, 7, 61, 236, 197, 26, 189, 159, 17, 220, 60, 150, 144, 229, 187, 5, 118, 38, 61, 164, 214, 61, 188, 219, 112, 150, 188, 53, 81, 165, 60, 200, 81, 206, 59, 216, 141, 88, 59, 134, 131, 161, 60, 9, 40, 21, 188, 103, 1, 220, 59, 35, 198, 169, 188, 234, 57, 168, 188, 144, 123, 198, 59, 47, 18, 136, 60, 34, 183, 176, 186, 75, 41, 14, 61, 193, 159, 183, 60, 135, 29, 9, 189, 2, 145, 202, 188, 164, 162, 49, 187, 110, 41, 11, 189, 46, 205, 201, 60, 123, 160, 28, 61, 143, 184, 244, 60, 119, 212, 24, 61, 33, 242, 12, 189, 211, 216, 15, 189, 119, 167, 191, 188, 17, 178, 2, 189, 155, 19, 33, 61, 40, 46, 23, 189, 152, 19, 136, 188, 168, 47, 230, 188, 241, 226, 17, 189, 30, 138, 147, 186, 27, 102, 2, 60, 162, 168, 199, 59, 221, 138, 249, 60, 183, 53, 170, 186, 211, 116, 99, 188, 252, 31, 196, 188, 132, 220, 218, 188, 252, 77, 200, 188, 171, 216, 72, 60, 106, 170, 219, 59, 9, 230, 130, 60, 245, 209, 146, 60, 76, 118, 132, 188, 245, 190, 120, 60, 27, 163, 20, 189, 71, 134, 149, 60, 82, 170, 38, 189, 182, 131, 246, 188, 152, 70, 249, 58, 105, 122, 236, 60, 165, 74, 26, 61, 30, 62, 42, 188, 163, 204, 251, 188, 182, 4, 5, 189, 20, 49, 154, 187, 230, 230, 113, 60, 151, 136, 111, 59, 158, 137, 18, 188, 218, 59, 79, 187, 194, 212, 158, 60, 26, 180, 249, 187, 250, 52, 1, 188, 230, 184, 20, 61, 175, 158, 118, 187, 249, 80, 217, 60, 51, 21, 183, 60, 31, 17, 100, 60, 237, 69, 25, 61, 15, 99, 110, 188, 236, 198, 163, 60, 136, 9, 37, 60, 137, 106, 156, 60, 234, 29, 57, 188, 127, 1, 50, 188, 24, 186, 19, 59, 121, 186, 200, 60, 235, 246, 34, 61, 18, 158, 18, 189, 200, 86, 215, 59, 3, 4, 40, 189, 44, 45, 189, 188, 153, 83, 246, 59, 154, 223, 83, 60, 125, 86, 206, 60, 39, 225, 60, 60, 86, 21, 2, 189, 117, 135, 119, 60, 217, 140, 40, 189, 16, 74, 209, 60, 24, 171, 243, 188, 56, 131, 213, 188, 198, 209, 229, 59, 186, 181, 100, 187, 120, 140, 36, 60, 136, 246, 233, 60, 100, 33, 180, 60, 154, 211, 103, 188, 198, 193, 189, 187, 115, 120, 77, 186, 66, 238, 12, 60, 158, 113, 91, 188, 83, 51, 53, 188, 64, 182, 166, 188, 0, 123, 146, 186, 245, 175, 147, 60, 54, 185, 246, 60, 7, 148, 227, 187, 229, 146, 141, 188, 143, 18, 137, 188, 48, 248, 102, 186, 53, 47, 203, 188, 57, 187, 59, 187, 16, 32, 183, 57, 57, 133, 245, 60, 37, 153, 5, 61, 156, 88, 131, 60, 192, 15, 43, 61, 17, 25, 175, 188, 66, 85, 135, 188, 182, 116, 16, 189, 156, 94, 156, 186, 16, 250, 152, 60, 1, 86, 7, 61, 22, 55, 231, 60, 192, 4, 0, 61, 174, 113, 22, 60, 145, 162, 193, 60, 197, 170, 35, 188, 105, 77, 15, 58, 127, 199, 216, 60, 78, 146, 1, 189, 235, 129, 151, 188, 225, 29, 184, 60, 171, 59, 223, 188, 188, 203, 62, 188, 197, 10, 136, 188, 206, 86, 8, 61, 109, 95, 205, 60, 132, 182, 22, 189, 214, 146, 28, 60, 0, 212, 10, 61, 248, 151, 202, 60, 186, 8, 119, 60, 177, 251, 89, 188, 87, 50, 74, 188, 69, 79, 238, 60, 62, 231, 45, 187, 116, 127, 0, 189, 105, 70, 3, 189, 79, 196, 199, 188, 233, 72, 224, 60, 188, 8, 32, 188, 130, 221, 17, 61, 52, 220, 174, 60, 173, 56, 232, 188, 112, 209, 0, 61, 159, 102, 235, 188, 172, 8, 74, 60, 43, 90, 197, 60, 251, 40, 122, 186, 224, 17, 94, 188, 78, 202, 60, 60, 181, 112, 108, 60, 186, 93, 52, 60, 90, 195, 176, 60, 221, 97, 44, 61, 238, 22, 208, 188, 44, 96, 117, 60, 220, 198, 33, 61, 57, 55, 143, 60, 159, 90, 10, 189, 211, 67, 173, 184, 68, 56, 34, 61, 113, 163, 0, 189, 56, 166, 220, 60, 162, 228, 124, 59, 106, 135, 218, 60, 7, 70, 60, 59, 163, 0, 14, 59, 233, 80, 192, 60, 247, 98, 225, 188, 67, 102, 32, 189, 166, 22, 28, 187, 119, 116, 43, 61, 88, 165, 113, 188, 123, 213, 222, 56, 134, 170, 44, 187, 143, 79, 22, 189, 251, 165, 153, 188, 253, 140, 103, 187, 33, 25, 34, 189, 63, 55, 128, 60, 125, 217, 190, 60, 210, 114, 42, 61, 142, 235, 104, 188, 37, 108, 182, 188, 248, 99, 192, 187, 59, 196, 46, 189, 141, 40, 32, 189, 244, 149, 20, 189, 142, 136, 42, 189, 238, 89, 17, 189, 104, 231, 42, 188, 54, 22, 67, 188, 125, 106, 19, 61, 178, 183, 7, 61, 155, 161, 2, 61, 104, 95, 190, 60, 197, 142, 186, 60, 225, 175, 46, 61, 158, 117, 12, 189, 145, 52, 154, 60, 108, 85, 40, 188, 49, 248, 151, 60, 3, 166, 28, 60, 174, 177, 127, 188, 194, 158, 15, 188, 89, 55, 172, 188, 250, 163, 233, 188, 13, 120, 59, 188, 20, 10, 243, 59, 0, 183, 44, 61, 13, 246, 25, 189, 219, 167, 174, 188, 235, 243, 31, 189, 189, 155, 166, 188, 129, 213, 117, 188, 131, 80, 53, 60, 13, 176, 152, 60, 72, 136, 0, 189, 158, 27, 196, 187, 152, 128, 200, 188, 95, 176, 180, 186, 128, 244, 102, 60, 213, 176, 25, 61, 240, 46, 204, 60, 31, 237, 157, 60, 44, 145, 27, 189, 119, 73, 195, 188, 95, 69, 134, 188, 221, 4, 164, 188, 238, 30, 26, 60, 194, 209, 242, 60, 68, 34, 182, 188, 206, 101, 0, 61, 37, 22, 207, 60, 13, 120, 80, 60, 200, 184, 186, 60, 41, 217, 168, 60, 71, 254, 13, 60, 133, 165, 1, 61, 67, 246, 39, 61, 151, 240, 12, 189, 59, 28, 214, 188, 88, 145, 172, 60, 229, 125, 14, 189, 225, 48, 157, 188, 78, 84, 249, 187, 187, 60, 6, 61, 76, 48, 52, 188, 157, 212, 243, 60, 72, 175, 234, 60, 35, 108, 205, 60, 159, 4, 212, 188, 169, 193, 220, 60, 77, 248, 29, 61, 178, 176, 33, 189, 53, 233, 46, 188, 99, 184, 38, 189, 254, 51, 242, 60, 226, 96, 62, 59, 31, 222, 24, 60, 252, 79, 114, 187, 155, 80, 126, 60, 220, 35, 164, 60, 207, 190, 14, 60, 164, 183, 166, 188, 148, 160, 161, 188, 34, 210, 1, 59, 53, 190, 180, 188, 246, 178, 4, 189, 237, 121, 22, 60, 207, 214, 245, 188, 133, 40, 26, 186, 154, 213, 183, 60, 180, 50, 52, 188, 236, 4, 27, 61, 75, 40, 180, 60, 203, 206, 73, 187, 196, 29, 209, 187, 199, 123, 226, 188, 18, 247, 99, 186, 196, 221, 18, 59, 208, 204, 183, 60, 223, 167, 216, 60, 99, 57, 167, 60, 142, 90, 73, 188, 72, 87, 92, 188, 143, 102, 115, 188, 122, 34, 201, 188, 108, 50, 36, 59, 54, 1, 240, 60, 244, 234, 172, 60, 155, 112, 238, 58, 229, 235, 26, 61, 107, 166, 146, 60, 21, 61, 127, 59, 171, 185, 61, 60, 209, 11, 37, 189, 158, 76, 140, 188, 123, 208, 41, 189, 64, 81, 93, 60, 15, 89, 239, 60, 80, 18, 188, 60, 89, 149, 86, 60, 142, 10, 3, 189, 165, 81, 81, 187, 223, 19, 37, 188, 25, 84, 214, 188, 74, 112, 28, 189, 50, 119, 4, 189, 181, 10, 52, 60, 251, 137, 150, 60, 110, 102, 24, 60, 45, 43, 242, 188, 224, 112, 208, 60, 90, 14, 245, 187, 161, 227, 169, 58, 201, 236, 8, 189, 232, 6, 27, 187, 88, 110, 31, 188, 156, 225, 145, 59, 113, 60, 5, 61, 91, 77, 11, 189, 59, 150, 211, 188, 242, 127, 35, 189, 3, 3, 20, 61, 155, 151, 201, 187, 125, 4, 144, 60, 42, 87, 116, 188, 207, 99, 186, 60, 123, 68, 22, 189, 202, 187, 165, 187, 25, 100, 201, 59, 175, 122, 241, 188, 123, 210, 174, 188, 59, 107, 210, 60, 93, 127, 64, 184, 166, 91, 38, 61, 136, 65, 80, 187, 111, 116, 22, 189, 48, 117, 249, 60, 204, 72, 113, 188, 45, 54, 245, 187, 214, 131, 16, 189, 51, 149, 47, 188, 26, 179, 155, 59, 94, 29, 165, 59, 60, 118, 223, 60, 198, 6, 186, 188, 194, 145, 129, 60, 54, 87, 128, 188, 179, 163, 15, 189, 57, 19, 186, 60, 137, 121, 198, 187, 41, 239, 254, 60, 59, 234, 108, 188, 5, 193, 166, 188, 134, 5, 222, 188, 126, 129, 231, 58, 85, 159, 90, 59, 43, 77, 3, 61, 222, 227, 25, 188, 176, 44, 100, 60, 15, 208, 3, 189, 68, 166, 132, 60, 26, 117, 37, 61, 236, 67, 231, 60, 140, 8, 140, 59, 167, 78, 160, 188, 190, 8, 152, 60, 207, 120, 8, 189, 150, 32, 164, 187, 156, 30, 230, 187, 202, 33, 203, 60, 120, 114, 161, 60, 26, 206, 13, 59, 168, 223, 75, 58, 124, 214, 183, 188, 242, 207, 42, 61, 22, 16, 194, 188, 133, 136, 5, 188, 25, 48, 200, 59, 71, 175, 35, 189, 241, 111, 33, 61, 47, 47, 69, 188, 221, 139, 98, 60, 121, 230, 11, 61, 56, 120, 31, 189, 86, 196, 16, 61, 97, 110, 61, 188, 226, 40, 199, 59, 148, 65, 22, 61, 245, 55, 224, 187, 120, 51, 40, 61, 114, 94, 138, 59, 197, 226, 46, 189, 90, 47, 240, 59, 10, 162, 169, 186, 6, 174, 117, 188, 120, 162, 111, 60, 254, 236, 85, 188, 48, 47, 17, 61, 244, 133, 225, 60, 190, 161, 20, 60, 54, 77, 153, 188, 205, 200, 15, 189, 102, 35, 77, 60, 180, 131, 203, 58, 237, 146, 186, 60, 124, 106, 140, 188, 138, 3, 124, 60, 233, 129, 175, 59, 77, 217, 239, 58, 151, 73, 158, 188, 110, 9, 92, 188, 70, 114, 64, 60, 228, 186, 10, 189, 154, 247, 240, 60, 106, 9, 8, 61, 208, 137, 37, 189, 233, 183, 91, 188, 71, 3, 220, 188, 250, 144, 252, 60, 15, 142, 165, 186, 89, 238, 163, 188, 72, 212, 76, 186, 226, 67, 25, 59, 14, 218, 222, 188, 82, 129, 32, 189, 233, 102, 31, 60, 207, 98, 110, 188, 130, 169, 157, 187, 150, 150, 44, 61, 111, 216, 3, 61, 225, 68, 173, 60, 82, 237, 37, 61, 185, 32, 129, 187, 120, 76, 46, 61, 139, 90, 28, 189, 180, 29, 219, 186, 131, 192, 35, 61, 196, 167, 183, 60, 217, 227, 137, 188, 230, 86, 121, 188, 53, 90, 70, 188, 238, 43, 144, 60, 159, 149, 47, 60, 170, 157, 26, 60, 248, 175, 98, 188, 97, 130, 73, 188, 43, 148, 5, 60, 88, 57, 230, 187, 31, 186, 135, 60, 161, 177, 138, 188, 100, 156, 161, 188, 16, 253, 229, 185, 148, 160, 12, 60, 208, 151, 15, 189, 193, 91, 166, 188, 66, 178, 43, 189, 50, 116, 14, 189, 83, 116, 110, 188, 13, 252, 4, 189, 163, 33, 92, 187, 23, 210, 42, 60, 171, 173, 15, 61, 59, 71, 161, 60, 7, 229, 193, 59, 84, 68, 216, 60, 149, 251, 137, 188, 69, 251, 64, 188, 235, 180, 202, 188, 243, 195, 236, 188, 12, 126, 33, 60, 206, 28, 14, 61, 184, 15, 207, 188, 206, 217, 38, 189, 13, 167, 134, 188, 89, 51, 20, 61, 136, 46, 170, 187, 11, 124, 215, 59, 131, 183, 96, 188, 191, 252, 29, 188, 226, 201, 24, 189, 74, 58, 20, 61, 2, 82, 247, 60, 29, 209, 211, 188, 199, 200, 38, 188, 134, 116, 215, 60, 214, 219, 22, 61, 16, 244, 38, 189, 225, 173, 143, 188, 119, 111, 194, 60, 91, 221, 40, 60, 157, 116, 165, 60, 117, 78, 21, 61, 92, 245, 245, 188, 46, 108, 216, 188, 130, 116, 21, 61, 159, 161, 97, 59, 89, 116, 23, 189, 126, 44, 253, 60, 51, 75, 182, 188, 185, 20, 44, 61, 170, 108, 39, 189, 23, 43, 65, 60, 142, 135, 10, 61, 129, 126, 105, 188, 2, 79, 162, 59, 255, 19, 18, 189, 155, 78, 171, 59, 104, 57, 56, 188, 5, 213, 4, 189, 150, 1, 170, 187, 225, 65, 71, 188, 136, 198, 32, 60, 152, 112, 51, 59, 4, 191, 211, 188, 104, 34, 49, 60, 196, 173, 19, 61, 62, 97, 5, 189, 124, 28, 10, 189, 170, 152, 21, 59, 162, 203, 152, 188, 83, 155, 242, 187, 44, 63, 46, 189, 20, 70, 132, 188, 138, 126, 216, 187, 44, 10, 155, 60, 63, 183, 80, 188, 26, 153, 21, 60, 207, 245, 190, 186, 171, 17, 105, 188, 207, 170, 28, 189, 172, 108, 144, 59, 242, 29, 191, 188, 101, 153, 20, 189, 243, 249, 14, 58, 44, 165, 33, 61, 76, 46, 177, 60, 154, 51, 8, 61, 216, 93, 148, 188, 183, 248, 51, 58, 143, 54, 11, 61, 30, 29, 188, 60, 105, 75, 46, 188, 168, 177, 80, 188, 242, 92, 25, 189, 115, 51, 68, 187, 141, 152, 198, 187, 185, 53, 157, 59, 25, 192, 227, 59, 48, 233, 110, 60, 197, 189, 210, 60, 242, 86, 199, 60, 69, 90, 3, 61, 81, 85, 150, 188, 231, 167, 44, 57, 222, 35, 209, 188, 85, 210, 237, 60, 21, 114, 157, 60, 150, 87, 38, 187, 22, 158, 248, 59, 224, 179, 28, 189, 166, 15, 30, 61, 202, 13, 235, 186, 35, 127, 215, 188, 237, 246, 125, 188, 251, 67, 128, 60, 64, 237, 141, 60, 166, 115, 229, 188, 79, 227, 1, 61, 145, 179, 198, 57, 86, 210, 210, 60, 46, 213, 218, 59, 194, 22, 113, 188, 151, 196, 195, 60, 123, 106, 17, 188, 15, 197, 208, 187, 39, 105, 232, 60, 240, 13, 31, 189, 160, 111, 21, 187, 173, 214, 90, 188, 240, 113, 148, 59, 215, 115, 243, 58, 23, 113, 74, 58, 82, 22, 140, 59, 69, 82, 81, 60, 52, 144, 72, 59, 152, 205, 250, 60, 192, 37, 128, 188, 7, 193, 25, 61, 239, 238, 17, 189, 79, 59, 192, 188, 160, 69, 1, 189, 199, 11, 112, 186, 189, 185, 27, 189, 226, 201, 76, 60, 252, 237, 239, 188, 175, 241, 251, 60, 82, 242, 33, 60, 28, 106, 164, 188, 77, 39, 5, 188, 187, 137, 40, 61, 160, 90, 44, 189, 251, 70, 203, 185, 196, 214, 29, 189, 68, 106, 87, 188, 237, 171, 140, 188, 9, 190, 134, 187, 143, 91, 5, 189, 120, 145, 24, 61, 90, 89, 220, 60, 243, 54, 25, 189, 222, 217, 29, 189, 199, 185, 160, 188, 202, 180, 165, 184, 1, 80, 204, 59, 232, 34, 143, 188, 240, 233, 139, 60, 254, 236, 23, 60, 155, 184, 32, 61, 237, 162, 248, 186, 109, 36, 79, 59, 155, 68, 235, 188, 56, 254, 250, 187, 75, 74, 253, 60, 124, 96, 13, 188, 107, 41, 44, 60, 35, 12, 13, 61, 58, 36, 0, 61, 63, 66, 133, 188, 111, 20, 220, 188, 155, 78, 142, 60, 40, 103, 33, 61, 151, 6, 152, 60, 167, 121, 93, 59, 124, 225, 54, 188, 99, 72, 221, 60, 210, 118, 25, 189, 59, 1, 194, 187, 150, 123, 94, 60, 81, 105, 51, 188, 191, 74, 8, 189, 116, 255, 217, 188, 73, 61, 191, 188, 104, 170, 190, 188, 7, 110, 26, 189, 15, 83, 17, 61, 213, 158, 27, 189, 234, 225, 4, 60, 95, 204, 184, 188, 23, 240, 181, 187, 20, 241, 42, 61, 70, 88, 201, 188, 253, 140, 14, 189, 194, 114, 158, 60, 133, 68, 38, 189, 50, 47, 29, 189, 179, 150, 240, 60, 229, 176, 8, 188, 167, 246, 114, 60, 202, 81, 99, 188, 83, 147, 46, 61, 205, 20, 133, 60, 197, 153, 32, 61, 223, 147, 185, 186, 202, 139, 237, 188, 249, 14, 31, 61, 48, 129, 211, 188, 47, 207, 25, 61, 239, 71, 175, 60, 200, 140, 131, 60, 154, 212, 140, 188, 103, 72, 159, 60, 10, 140, 180, 188, 197, 156, 249, 59, 212, 25, 155, 60, 236, 164, 0, 61, 212, 248, 14, 61, 177, 173, 241, 59, 200, 8, 35, 189, 247, 158, 38, 189, 138, 66, 127, 188, 102, 50, 193, 58, 229, 87, 155, 188, 151, 14, 229, 59, 67, 29, 158, 60, 119, 114, 5, 188, 146, 52, 77, 188, 38, 250, 169, 59, 84, 48, 99, 60, 207, 73, 226, 60, 239, 161, 235, 187, 162, 132, 132, 188, 141, 118, 39, 188, 232, 190, 177, 187, 235, 139, 40, 189, 216, 215, 126, 188, 154, 212, 196, 188, 159, 125, 234, 60, 204, 228, 136, 60, 211, 228, 179, 188, 159, 42, 65, 60, 92, 205, 173, 188, 95, 186, 51, 188, 25, 183, 35, 61, 220, 225, 79, 60, 195, 209, 46, 189, 108, 204, 243, 188, 94, 106, 181, 60, 31, 152, 183, 188, 219, 58, 0, 61, 175, 219, 228, 188, 114, 197, 13, 61, 123, 252, 215, 59, 137, 143, 131, 59, 95, 37, 14, 189, 33, 202, 143, 187, 159, 85, 203, 188, 2, 243, 207, 59, 134, 47, 185, 60, 78, 128, 27, 61, 149, 226, 162, 60, 154, 29, 126, 187, 6, 33, 26, 59, 130, 12, 162, 188, 69, 176, 170, 188, 189, 147, 39, 188, 184, 64, 109, 188, 215, 167, 17, 188, 121, 177, 10, 61, 98, 100, 13, 61, 26, 127, 40, 61, 223, 218, 208, 60, 95, 221, 3, 186, 254, 99, 153, 58, 211, 194, 245, 59, 231, 213, 140, 60, 92, 132, 38, 60, 140, 90, 144, 60, 58, 100, 80, 188, 164, 56, 186, 60, 254, 91, 175, 59, 148, 89, 209, 59, 23, 86, 45, 189, 165, 125, 41, 61, 29, 53, 246, 58, 6, 35, 23, 189, 148, 37, 101, 60, 88, 127, 28, 60, 3, 203, 14, 189, 141, 193, 31, 189, 242, 77, 214, 59, 40, 177, 244, 60, 145, 114, 27, 189, 112, 205, 237, 187, 89, 80, 244, 188, 86, 16, 136, 58, 223, 219, 36, 61, 194, 30, 3, 189, 101, 105, 163, 188, 32, 225, 15, 189, 67, 15, 179, 60, 220, 204, 143, 188, 24, 56, 7, 189, 143, 252, 23, 189, 188, 253, 251, 188, 241, 27, 185, 60, 126, 148, 183, 188, 94, 240, 192, 187, 21, 19, 212, 60, 182, 88, 15, 61, 202, 170, 31, 189, 11, 149, 40, 61, 237, 96, 11, 60, 146, 137, 254, 60, 88, 47, 11, 61, 24, 84, 0, 61, 255, 173, 42, 189, 241, 240, 146, 58, 66, 22, 59, 60, 156, 194, 254, 187, 88, 87, 34, 61, 231, 90, 213, 188, 99, 141, 137, 60, 56, 213, 23, 61, 44, 205, 17, 189, 132, 222, 233, 188, 87, 0, 25, 188, 162, 124, 246, 60, 33, 207, 4, 61, 32, 244, 164, 188, 141, 234, 202, 60, 45, 199, 52, 60, 99, 142, 129, 60, 210, 203, 29, 189, 185, 189, 134, 60, 208, 175, 159, 60, 76, 5, 211, 60, 124, 242, 27, 189, 156, 0, 164, 60, 172, 13, 252, 188, 174, 86, 173, 188, 62, 223, 175, 188, 224, 82, 163, 187, 32, 245, 17, 189, 170, 95, 209, 60, 46, 168, 155, 60, 200, 209, 239, 188, 118, 4, 145, 60, 63, 145, 176, 59, 55, 0, 134, 60, 71, 42, 9, 61, 228, 239, 181, 188, 66, 91, 38, 61, 192, 15, 44, 189, 33, 77, 225, 188, 78, 232, 55, 60, 200, 80, 227, 188, 22, 87, 144, 60, 110, 106, 3, 59, 240, 156, 178, 188, 171, 212, 201, 58, 114, 71, 45, 189, 239, 48, 199, 60, 32, 108, 209, 60, 84, 25, 36, 61, 44, 79, 24, 189, 71, 7, 217, 60, 84, 151, 147, 59, 121, 133, 245, 188, 178, 116, 132, 60, 116, 247, 55, 59, 243, 169, 216, 60, 196, 88, 76, 60, 37, 174, 3, 186, 37, 161, 94, 60, 232, 127, 60, 60, 205, 245, 59, 60, 119, 235, 84, 60, 198, 58, 191, 186, 218, 186, 165, 59, 72, 92, 21, 189, 174, 225, 51, 188, 21, 75, 24, 61, 147, 230, 119, 188, 191, 245, 8, 61, 69, 10, 31, 59, 87, 60, 20, 59, 120, 106, 204, 60, 4, 200, 99, 188, 5, 155, 169, 60, 169, 193, 39, 189, 35, 176, 123, 188, 84, 48, 109, 187, 234, 222, 182, 188, 31, 101, 183, 187, 140, 185, 23, 61, 7, 145, 115, 60, 15, 73, 28, 59, 129, 57, 166, 59, 83, 152, 200, 184, 231, 255, 206, 60, 104, 165, 31, 61, 20, 181, 25, 186, 40, 255, 80, 60, 43, 233, 218, 59, 117, 195, 243, 59, 126, 199, 255, 188, 120, 30, 49, 60, 28, 118, 20, 189, 30, 19, 240, 188, 183, 7, 167, 188, 80, 224, 146, 188, 169, 77, 130, 188, 211, 51, 205, 188, 55, 173, 79, 60, 108, 211, 34, 61, 67, 178, 20, 189, 95, 71, 198, 58, 119, 224, 24, 189, 75, 77, 2, 61, 38, 133, 28, 61, 237, 130, 251, 60, 232, 47, 175, 188, 230, 144, 49, 188, 227, 108, 174, 60, 0, 102, 171, 188, 158, 252, 16, 61, 203, 205, 189, 188, 81, 138, 187, 60, 203, 13, 17, 188, 182, 60, 63, 188, 110, 140, 122, 188, 71, 180, 196, 188, 5, 110, 42, 61, 164, 41, 1, 189, 72, 255, 149, 188, 208, 215, 18, 60, 85, 4, 147, 60, 46, 162, 109, 60, 202, 152, 212, 56, 61, 66, 241, 188, 6, 155, 204, 60, 40, 93, 30, 61, 144, 30, 173, 59, 24, 21, 195, 187, 174, 114, 182, 59, 253, 6, 211, 187, 236, 168, 186, 187, 11, 116, 137, 188, 25, 121, 31, 189, 157, 234, 36, 61, 71, 107, 96, 60, 99, 244, 215, 188, 117, 144, 248, 60, 104, 96, 32, 61, 5, 107, 226, 56, 48, 146, 156, 188, 198, 150, 41, 61, 52, 183, 46, 61, 161, 174, 113, 59, 56, 121, 165, 60, 168, 90, 39, 188, 185, 1, 46, 61, 25, 31, 158, 60, 69, 111, 29, 60, 56, 73, 251, 60, 48, 156, 23, 188, 186, 120, 9, 189, 97, 145, 97, 187, 120, 141, 251, 60, 69, 166, 193, 188, 198, 29, 201, 188, 84, 5, 232, 60, 3, 28, 0, 61, 196, 215, 123, 59, 110, 55, 10, 61, 177, 245, 62, 188, 175, 117, 99, 60, 29, 187, 40, 189, 12, 21, 30, 60, 88, 48, 250, 188, 123, 35, 222, 60, 187, 169, 12, 60, 12, 76, 25, 61, 148, 58, 30, 189, 141, 24, 4, 61, 235, 193, 8, 189, 130, 86, 233, 188, 185, 69, 243, 188, 60, 167, 135, 188, 48, 58, 7, 189, 112, 72, 89, 186, 24, 59, 28, 189, 54, 47, 24, 189, 38, 68, 27, 189, 162, 186, 219, 60, 126, 14, 146, 188, 132, 245, 87, 60, 249, 42, 211, 56, 249, 88, 96, 59, 40, 24, 10, 189, 108, 183, 15, 189, 83, 136, 248, 188, 31, 101, 183, 59, 192, 249, 146, 187, 153, 157, 150, 186, 105, 33, 139, 60, 152, 94, 253, 188, 111, 68, 36, 189, 53, 218, 179, 60, 95, 14, 127, 60, 128, 239, 42, 189, 169, 211, 18, 60, 142, 152, 230, 188, 145, 225, 58, 188, 189, 44, 20, 60, 15, 178, 181, 188, 43, 58, 164, 188, 38, 243, 244, 188, 18, 15, 204, 59, 64, 80, 174, 187, 250, 167, 29, 189, 7, 81, 238, 188, 46, 33, 10, 188, 210, 87, 11, 60, 230, 34, 30, 60, 149, 176, 36, 189, 180, 223, 15, 189, 110, 153, 38, 61, 184, 100, 233, 188, 237, 207, 227, 60, 67, 50, 23, 61, 149, 136, 234, 60, 35, 38, 89, 188, 170, 11, 141, 187, 182, 223, 119, 59, 188, 0, 7, 60, 26, 174, 4, 189, 149, 80, 207, 60, 7, 140, 42, 61, 110, 231, 133, 60, 207, 51, 35, 61, 117, 55, 10, 189, 237, 237, 23, 189, 82, 195, 10, 61, 55, 115, 230, 60, 33, 49, 113, 60, 77, 29, 10, 61, 8, 143, 114, 60, 120, 179, 42, 61, 93, 76, 247, 188, 48, 190, 136, 188, 143, 141, 168, 60, 34, 204, 60, 60, 207, 61, 39, 189, 117, 1, 215, 60, 172, 167, 173, 60, 98, 196, 29, 189, 9, 165, 123, 188, 16, 126, 122, 60, 167, 74, 14, 61, 144, 186, 219, 59, 116, 47, 1, 61, 134, 26, 220, 188, 112, 26, 0, 61, 167, 20, 10, 61, 161, 114, 26, 189, 59, 132, 23, 187, 79, 216, 11, 61, 181, 191, 165, 188, 184, 97, 34, 61, 135, 182, 117, 188, 81, 111, 252, 187, 37, 112, 134, 60, 181, 64, 189, 60, 195, 26, 119, 60, 209, 117, 11, 189, 91, 236, 197, 187, 105, 90, 190, 60, 55, 133, 204, 188, 246, 195, 241, 188, 55, 193, 33, 61, 57, 155, 202, 187, 88, 241, 187, 60, 105, 214, 227, 60, 175, 238, 28, 61, 255, 133, 34, 60, 40, 4, 98, 188, 3, 166, 42, 61, 45, 12, 244, 188, 100, 213, 116, 188, 10, 240, 185, 188, 242, 133, 33, 61, 198, 59, 199, 60, 202, 140, 18, 189, 135, 115, 20, 189, 226, 50, 45, 61, 138, 108, 65, 188, 28, 216, 25, 189, 110, 183, 79, 188, 12, 89, 30, 187, 82, 118, 103, 188, 195, 125, 24, 188, 206, 119, 126, 187, 79, 77, 39, 189, 173, 213, 125, 188, 87, 180, 37, 61, 56, 107, 14, 61, 201, 182, 13, 188, 113, 189, 194, 188, 155, 202, 249, 188, 40, 160, 138, 60, 21, 87, 163, 188, 127, 125, 192, 60, 113, 29, 223, 188, 237, 109, 14, 60, 138, 252, 224, 188, 164, 112, 174, 187, 108, 4, 186, 188, 176, 103, 136, 188, 245, 32, 61, 188, 77, 195, 245, 60, 189, 45, 213, 188, 236, 130, 0, 61, 64, 196, 23, 61, 27, 15, 234, 187, 145, 217, 64, 58, 107, 133, 22, 189, 63, 62, 51, 60, 237, 48, 30, 189, 254, 172, 9, 61, 55, 6, 70, 187, 229, 136, 104, 60, 25, 69, 22, 61, 102, 143, 156, 59, 224, 237, 32, 189, 90, 29, 27, 61, 127, 221, 142, 187, 61, 208, 170, 60, 48, 255, 32, 61, 211, 180, 240, 188, 188, 13, 126, 58, 48, 59, 30, 61, 206, 128, 221, 188, 5, 210, 17, 189, 96, 234, 224, 60, 28, 141, 122, 188, 98, 41, 27, 189, 20, 95, 222, 60, 185, 179, 45, 189, 65, 121, 164, 60, 167, 142, 200, 188, 14, 219, 212, 188, 120, 213, 143, 188, 20, 80, 120, 60, 246, 195, 202, 188, 133, 123, 24, 189, 180, 144, 30, 58, 67, 160, 243, 188, 33, 65, 189, 60, 91, 134, 133, 60, 128, 57, 170, 60, 42, 143, 26, 189, 10, 82, 211, 60, 221, 70, 17, 189, 157, 134, 141, 188, 170, 2, 8, 61, 165, 124, 210, 60, 235, 51, 183, 60, 183, 25, 67, 60, 173, 234, 132, 59, 2, 35, 35, 61, 22, 50, 14, 189, 18, 116, 45, 61, 229, 126, 17, 188, 138, 91, 205, 188, 234, 86, 247, 60, 47, 20, 199, 188, 127, 1, 190, 188, 190, 187, 4, 61, 76, 125, 3, 189, 74, 32, 140, 188, 153, 109, 23, 61, 36, 32, 209, 59, 163, 47, 129, 60, 119, 63, 56, 188, 70, 15, 248, 188, 37, 43, 125, 188, 73, 170, 200, 187, 36, 17, 181, 188, 167, 248, 90, 188, 222, 102, 87, 59, 112, 64, 86, 60, 218, 151, 17, 189, 196, 77, 246, 60, 178, 158, 167, 60, 183, 101, 89, 188, 17, 128, 181, 188, 153, 85, 35, 189, 237, 139, 18, 61, 215, 107, 171, 187, 157, 134, 114, 188, 182, 175, 161, 59, 201, 11, 36, 189, 248, 156, 206, 188, 183, 241, 14, 61, 114, 115, 13, 61, 32, 11, 16, 189, 216, 144, 205, 188, 181, 253, 126, 188, 238, 180, 225, 60, 67, 71, 222, 188, 164, 188, 203, 188, 101, 100, 165, 188, 12, 87, 252, 59, 0, 243, 168, 58, 118, 249, 22, 61, 221, 255, 78, 60, 39, 42, 0, 189, 107, 91, 161, 60, 68, 164, 139, 60, 17, 208, 139, 60, 111, 57, 190, 59, 114, 179, 15, 61, 58, 160, 169, 187, 5, 154, 36, 189, 64, 168, 233, 188, 204, 110, 22, 61, 64, 84, 28, 189, 23, 192, 230, 58, 96, 4, 135, 60, 149, 252, 156, 188, 0, 28, 81, 188, 192, 163, 233, 187, 186, 164, 61, 60, 243, 204, 155, 60, 242, 0, 177, 188, 123, 39, 169, 60, 101, 36, 0, 189, 151, 187, 29, 61, 13, 255, 12, 61, 12, 210, 131, 188, 197, 172, 4, 187, 238, 44, 32, 189, 66, 92, 15, 189, 22, 253, 151, 60, 120, 43, 32, 60, 88, 145, 25, 186, 37, 88, 172, 188, 240, 82, 128, 188, 174, 99, 41, 189, 128, 155, 20, 61, 151, 109, 223, 59, 225, 40, 27, 189, 108, 5, 6, 61, 129, 150, 16, 61, 226, 26, 148, 188, 184, 42, 156, 188, 179, 203, 21, 189, 251, 83, 89, 188, 85, 242, 211, 60, 198, 120, 48, 60, 102, 247, 91, 188, 110, 38, 184, 187, 101, 163, 149, 60, 183, 117, 248, 188, 223, 4, 35, 189, 98, 40, 239, 60, 195, 42, 133, 60, 162, 88, 199, 188, 255, 45, 160, 57, 109, 246, 241, 188, 19, 20, 17, 61, 155, 100, 15, 61, 91, 46, 195, 60, 142, 110, 222, 60, 88, 224, 141, 188, 22, 180, 41, 61, 118, 102, 108, 188, 53, 193, 10, 61, 213, 216, 10, 61, 53, 143, 30, 189, 6, 34, 0, 189, 48, 253, 145, 186, 99, 243, 130, 60, 172, 232, 162, 60, 9, 51, 149, 188, 76, 210, 80, 188, 214, 98, 187, 60, 10, 45, 38, 61, 36, 199, 201, 59, 103, 154, 153, 60, 110, 110, 169, 60, 176, 11, 246, 60, 145, 227, 38, 61, 35, 71, 75, 188, 179, 36, 91, 60, 136, 246, 233, 60, 122, 241, 7, 189, 137, 159, 19, 189, 163, 195, 172, 187, 250, 243, 90, 57, 90, 72, 76, 186, 230, 55, 110, 60, 56, 136, 36, 61, 83, 183, 122, 188, 125, 181, 227, 60, 227, 235, 204, 188, 31, 40, 161, 188, 249, 232, 166, 188, 201, 39, 38, 61, 165, 71, 154, 188, 237, 25, 39, 59, 205, 33, 4, 189, 240, 110, 4, 61, 254, 215, 225, 60, 236, 32, 146, 187, 230, 28, 215, 60, 55, 191, 46, 61, 95, 97, 2, 61, 111, 28, 44, 189, 236, 211, 9, 59, 110, 80, 6, 189, 75, 234, 224, 188, 184, 91, 97, 59, 219, 234, 77, 188, 150, 156, 14, 61, 4, 134, 11, 188, 145, 72, 32, 61, 82, 243, 187, 186, 159, 235, 119, 188, 112, 144, 1, 61, 28, 96, 185, 60, 87, 111, 20, 61, 173, 42, 26, 189, 177, 142, 173, 187, 102, 252, 209, 60, 136, 195, 196, 188, 136, 178, 129, 188, 150, 102, 25, 60, 254, 9, 102, 59, 253, 42, 35, 61, 36, 35, 101, 60, 67, 122, 135, 188, 165, 241, 55, 187, 204, 47, 8, 189, 222, 176, 255, 188, 242, 132, 19, 189, 111, 91, 44, 189, 5, 128, 37, 60, 109, 48, 77, 188, 210, 231, 41, 61, 229, 46, 98, 60, 131, 4, 130, 188, 12, 74, 42, 188, 195, 253, 13, 60, 225, 155, 167, 188, 4, 164, 218, 58, 219, 197, 23, 60, 10, 163, 20, 189, 150, 210, 199, 188, 84, 81, 42, 189, 56, 253, 248, 60, 36, 255, 247, 60, 172, 151, 34, 60, 173, 245, 59, 60, 203, 10, 221, 60, 30, 61, 251, 60, 204, 144, 191, 188, 155, 17, 132, 60, 205, 54, 97, 188, 113, 147, 186, 60, 167, 38, 202, 188, 138, 253, 255, 60, 243, 122, 164, 185, 137, 8, 22, 61, 200, 191, 180, 60, 74, 141, 3, 59, 9, 239, 243, 188, 109, 55, 18, 189, 255, 218, 179, 188, 220, 86, 238, 188, 255, 95, 113, 188, 21, 104, 83, 188, 215, 191, 154, 60, 196, 141, 104, 60, 144, 51, 25, 189, 234, 175, 250, 186, 236, 130, 236, 60, 199, 137, 205, 60, 24, 128, 166, 59, 133, 66, 41, 61, 80, 48, 22, 189, 116, 151, 3, 189, 159, 123, 223, 60, 22, 31, 3, 189, 86, 244, 95, 57, 224, 150, 55, 59, 96, 82, 242, 188, 99, 67, 37, 189, 36, 155, 146, 59, 228, 199, 11, 189, 59, 93, 166, 60, 81, 128, 53, 188, 185, 16, 19, 60, 73, 237, 102, 60, 223, 237, 186, 188, 241, 187, 180, 188, 63, 18, 196, 188, 115, 85, 222, 188, 161, 230, 30, 189, 123, 111, 186, 187, 1, 166, 73, 59, 204, 175, 34, 61, 5, 139, 163, 188, 199, 42, 106, 59, 75, 120, 24, 61, 157, 168, 26, 61, 156, 30, 2, 60, 212, 252, 13, 188, 84, 49, 213, 60, 214, 168, 87, 59, 92, 159, 80, 59, 153, 224, 164, 188, 128, 139, 10, 189, 156, 3, 153, 188, 107, 240, 254, 188, 255, 186, 228, 60, 254, 43, 22, 61, 223, 27, 206, 187, 89, 215, 27, 61, 109, 230, 191, 188, 99, 211, 125, 187, 185, 216, 12, 188, 159, 48, 199, 60, 14, 218, 251, 60, 19, 163, 128, 188, 245, 131, 180, 59, 21, 102, 235, 60, 215, 110, 10, 61, 187, 18, 0, 61, 91, 25, 128, 58, 145, 58, 218, 188, 195, 61, 15, 189, 216, 204, 248, 187, 188, 47, 45, 61, 101, 141, 136, 188, 91, 193, 65, 188, 59, 241, 167, 188, 164, 60, 45, 188, 229, 118, 198, 188, 92, 54, 2, 61, 54, 140, 97, 60, 135, 146, 183, 188, 119, 40, 49, 188, 118, 76, 44, 188, 144, 200, 160, 60, 69, 224, 22, 61, 209, 31, 136, 188, 145, 216, 27, 60, 102, 108, 83, 188, 125, 217, 207, 188, 32, 253, 37, 61, 134, 113, 232, 188, 226, 13, 152, 59, 38, 28, 133, 187, 222, 139, 230, 188, 194, 243, 236, 60, 153, 76, 215, 187, 72, 44, 131, 60, 191, 149, 40, 61, 57, 111, 221, 188, 251, 100, 232, 188, 140, 155, 123, 186, 51, 128, 137, 60, 201, 207, 145, 188, 71, 214, 32, 189, 248, 170, 154, 60, 59, 197, 216, 60, 48, 170, 246, 188, 230, 150, 126, 60, 171, 42, 23, 60, 92, 91, 18, 189, 2, 249, 233, 188, 63, 44, 190, 60, 16, 132, 16, 61, 55, 98, 254, 188, 104, 70, 32, 189, 20, 30, 27, 189, 150, 108, 1, 189, 18, 41, 152, 188, 1, 51, 92, 60, 34, 141, 17, 61, 44, 180, 113, 188, 27, 4, 136, 188, 171, 120, 187, 60, 237, 57, 181, 188, 71, 5, 151, 188, 165, 85, 234, 188, 31, 104, 135, 60, 118, 178, 161, 60, 163, 0, 118, 187, 124, 39, 13, 61, 56, 23, 145, 60, 155, 119, 239, 188, 50, 183, 27, 188, 149, 100, 188, 188, 9, 58, 39, 59, 153, 128, 155, 59, 72, 29, 38, 189, 157, 123, 181, 187, 65, 45, 38, 189, 242, 113, 19, 189, 251, 73, 44, 189, 235, 248, 0, 61, 144, 222, 85, 59, 88, 62, 8, 188, 178, 239, 190, 60, 221, 182, 23, 188, 119, 161, 32, 189, 182, 148, 172, 188, 197, 22, 240, 57, 24, 138, 42, 188, 224, 216, 245, 187, 95, 181, 38, 61, 37, 128, 139, 57, 40, 172, 21, 187, 129, 20, 191, 60, 192, 65, 188, 59, 84, 66, 195, 188, 120, 231, 10, 61, 58, 252, 216, 55, 29, 63, 174, 60, 158, 240, 174, 60, 147, 156, 230, 188, 4, 65, 60, 188, 115, 13, 5, 189, 15, 149, 17, 61, 42, 144, 145, 60, 178, 213, 199, 60, 126, 32, 224, 60, 21, 174, 252, 188, 192, 140, 11, 61, 182, 131, 35, 60, 204, 21, 20, 188, 159, 218, 184, 188, 155, 37, 209, 59, 92, 253, 85, 59, 93, 14, 17, 189, 22, 14, 97, 60, 124, 134, 178, 60, 68, 171, 227, 187, 162, 15, 176, 188, 19, 106, 210, 60, 113, 179, 7, 61, 18, 72, 215, 187, 0, 186, 38, 61, 134, 8, 126, 188, 225, 73, 19, 61, 89, 124, 194, 60, 223, 83, 139, 188, 210, 41, 131, 188, 203, 222, 194, 188, 24, 139, 189, 188, 189, 239, 11, 189, 76, 16, 122, 188, 57, 168, 20, 58, 42, 87, 23, 61, 17, 175, 175, 60, 158, 192, 25, 60, 55, 41, 127, 187, 97, 48, 31, 61, 92, 10, 212, 187, 87, 48, 226, 60, 204, 17, 248, 188, 42, 172, 23, 189, 28, 75, 32, 189, 37, 85, 18, 188, 16, 206, 172, 60, 102, 8, 134, 60, 195, 3, 66, 60, 224, 232, 83, 58, 198, 230, 186, 60, 113, 164, 109, 60, 33, 2, 12, 61, 149, 221, 158, 60, 163, 214, 214, 188, 249, 46, 38, 189, 141, 148, 163, 188, 6, 243, 159, 188, 56, 126, 221, 188, 21, 20, 33, 61, 136, 80, 19, 61, 82, 1, 20, 189, 162, 249, 230, 60, 205, 118, 238, 188, 178, 178, 145, 187, 69, 46, 12, 189, 44, 220, 22, 61, 178, 20, 98, 188, 162, 253, 78, 59, 166, 226, 41, 61, 130, 215, 225, 60, 77, 128, 15, 61, 251, 100, 1, 189, 34, 147, 143, 60, 63, 121, 132, 188, 21, 78, 44, 189, 222, 166, 27, 189, 207, 17, 33, 61, 40, 37, 6, 189, 75, 166, 175, 60, 241, 235, 31, 61, 123, 230, 49, 188, 245, 164, 188, 188, 86, 69, 26, 189, 39, 236, 189, 188, 82, 48, 39, 189, 186, 87, 8, 61, 137, 0, 130, 188, 77, 57, 130, 60, 19, 229, 91, 60, 174, 165, 205, 187, 29, 109, 210, 188, 137, 18, 181, 60, 161, 236, 217, 188, 13, 123, 150, 59, 104, 192, 242, 188, 161, 159, 44, 189, 209, 1, 241, 60, 250, 60, 202, 188, 217, 70, 185, 187, 254, 34, 83, 60, 165, 186, 184, 60, 88, 136, 42, 60, 199, 171, 140, 59, 120, 172, 168, 188, 58, 11, 210, 188, 87, 186, 254, 188, 129, 69, 27, 61, 63, 11, 216, 60, 221, 114, 35, 61, 221, 62, 53, 60, 0, 17, 248, 59, 7, 10, 4, 61, 48, 182, 32, 189, 138, 72, 5, 61, 221, 151, 202, 188, 111, 190, 178, 59, 3, 28, 200, 188, 88, 16, 133, 59, 255, 214, 237, 187, 37, 226, 159, 188, 50, 3, 104, 188, 172, 162, 239, 59, 187, 194, 41, 61, 189, 135, 154, 60, 20, 177, 88, 59, 174, 63, 148, 59, 169, 80, 18, 61, 167, 16, 37, 189, 49, 203, 108, 58, 9, 0, 111, 187, 196, 10, 137, 60, 92, 74, 18, 61, 227, 192, 86, 187, 180, 217, 232, 60, 154, 205, 18, 188, 213, 26, 27, 189, 237, 215, 48, 187, 44, 154, 233, 60, 119, 247, 143, 60, 89, 161, 99, 60, 59, 175, 217, 188, 179, 99, 36, 61, 150, 30, 19, 61, 20, 66, 29, 61, 131, 120, 40, 189, 26, 115, 96, 188, 40, 92, 129, 188, 178, 47, 255, 188, 65, 115, 41, 189, 98, 106, 154, 60, 113, 140, 129, 188, 45, 3, 11, 188, 162, 53, 218, 59, 75, 141, 84, 188, 111, 117, 7, 61, 169, 236, 191, 60, 85, 82, 10, 61, 131, 189, 146, 188, 170, 240, 168, 60, 228, 121, 222, 60, 3, 109, 25, 189, 122, 103, 212, 60, 26, 247, 227, 188, 110, 177, 28, 188, 210, 18, 215, 188, 83, 85, 141, 188, 196, 35, 140, 60, 250, 126, 154, 60, 71, 183, 199, 188, 137, 162, 42, 189, 15, 97, 197, 60, 62, 76, 137, 188, 231, 80, 77, 188, 59, 66, 66, 188, 34, 6, 195, 59, 165, 146, 196, 60, 97, 37, 39, 189, 33, 184, 154, 188, 123, 111, 37, 189, 74, 92, 83, 60, 45, 87, 136, 186, 150, 223, 40, 61, 54, 138, 8, 187, 41, 98, 110, 60, 246, 221, 164, 59, 253, 39, 5, 189, 5, 213, 41, 189, 180, 169, 194, 60, 130, 220, 109, 188, 66, 240, 22, 60, 141, 103, 29, 189, 129, 233, 160, 188, 161, 47, 204, 188, 166, 202, 20, 61, 66, 68, 15, 189, 197, 174, 102, 60, 37, 230, 148, 60, 9, 8, 37, 189, 218, 138, 136, 60, 127, 78, 5, 61, 181, 154, 210, 188, 210, 28, 47, 188, 12, 217, 225, 188, 121, 94, 38, 60, 133, 12, 190, 188, 209, 253, 121, 187, 79, 15, 59, 58, 166, 183, 250, 188, 117, 196, 185, 188, 164, 177, 18, 189, 131, 186, 213, 188, 69, 218, 48, 60, 203, 207, 6, 189, 253, 192, 39, 189, 76, 193, 5, 189, 129, 29, 151, 59, 164, 221, 14, 61, 165, 213, 49, 188, 54, 97, 154, 59, 175, 95, 197, 60, 179, 238, 126, 60, 246, 50, 44, 57, 105, 34, 63, 187, 208, 195, 22, 189, 139, 206, 32, 189, 158, 43, 236, 59, 138, 33, 16, 61, 175, 125, 234, 188, 231, 185, 40, 58, 8, 4, 242, 60, 248, 165, 2, 61, 41, 102, 83, 60, 36, 124, 36, 189, 136, 131, 8, 61, 222, 61, 180, 188, 113, 50, 23, 61, 63, 142, 228, 59, 191, 90, 195, 186, 177, 214, 32, 189, 113, 87, 122, 60, 9, 190, 155, 60, 248, 176, 21, 61, 115, 7, 123, 60, 123, 53, 41, 61, 248, 48, 190, 59, 130, 2, 187, 188, 179, 222, 197, 188, 237, 64, 7, 61, 190, 211, 17, 189, 15, 37, 44, 189, 217, 160, 89, 60, 47, 117, 238, 188, 20, 94, 123, 187, 29, 156, 101, 58, 17, 127, 7, 189, 177, 220, 201, 188, 154, 240, 242, 188, 242, 159, 252, 187, 52, 11, 20, 61, 243, 113, 248, 58, 93, 18, 37, 189, 113, 5, 186, 187, 59, 125, 92, 60, 114, 151, 90, 60, 102, 200, 35, 61, 173, 255, 104, 60, 160, 45, 84, 60, 69, 189, 5, 61, 7, 174, 71, 188, 232, 73, 150, 60, 95, 70, 46, 61, 234, 118, 31, 61, 44, 66, 10, 189, 198, 188, 21, 60, 141, 213, 193, 188, 158, 36, 223, 188, 152, 9, 198, 188, 188, 60, 12, 189, 66, 83, 3, 189, 95, 170, 21, 61, 44, 83, 26, 61, 74, 41, 12, 189, 155, 35, 32, 189, 230, 39, 212, 60, 27, 20, 188, 60, 6, 183, 160, 187, 12, 243, 254, 60, 133, 231, 139, 188, 132, 201, 104, 59, 17, 55, 28, 189, 56, 159, 86, 188, 23, 1, 1, 189, 194, 166, 252, 59, 8, 32, 142, 188, 77, 30, 13, 189, 253, 71, 47, 188, 34, 255, 226, 59, 123, 72, 0, 189, 223, 186, 199, 188, 195, 236, 134, 60, 93, 212, 28, 187, 172, 156, 237, 60, 30, 167, 233, 60, 81, 203, 139, 188, 179, 143, 136, 188, 197, 98, 0, 189, 92, 173, 19, 61, 95, 3, 25, 61, 171, 51, 207, 187, 10, 45, 39, 189, 67, 246, 56, 188, 246, 191, 234, 60, 191, 84, 43, 189, 193, 24, 45, 61, 206, 250, 154, 60, 200, 41, 171, 59, 182, 145, 32, 61, 54, 108, 20, 61, 142, 94, 182, 60, 117, 137, 41, 188, 62, 150, 210, 188, 7, 21, 44, 189, 101, 232, 24, 61, 125, 75, 212, 188, 121, 181, 8, 60, 238, 85, 54, 188, 180, 84, 177, 60, 116, 228, 41, 189, 170, 43, 7, 61, 17, 119, 101, 60, 223, 17, 16, 60, 206, 57, 191, 187, 87, 50, 20, 189, 241, 3, 53, 188, 229, 154, 42, 61, 62, 76, 39, 189, 148, 161, 188, 188, 135, 130, 34, 189, 166, 58, 97, 188, 151, 45, 31, 189, 215, 36, 138, 188, 193, 108, 32, 189, 250, 81, 151, 59, 177, 141, 223, 60, 193, 51, 228, 60, 116, 28, 240, 59, 65, 93, 25, 189, 117, 0, 7, 61, 26, 110, 0, 189, 95, 86, 151, 60, 151, 33, 34, 61, 174, 137, 209, 59, 253, 76, 181, 60, 201, 174, 41, 61, 65, 252, 251, 60, 66, 184, 131, 188, 64, 181, 41, 189, 248, 194, 31, 61, 181, 142, 46, 61, 113, 28, 36, 189, 62, 205, 139, 188, 80, 199, 215, 60, 125, 84, 157, 59, 215, 79, 132, 60, 203, 177, 228, 187, 243, 157, 254, 188, 233, 244, 23, 189, 114, 109, 246, 188, 63, 172, 160, 187, 108, 8, 111, 188, 194, 190, 67, 59, 56, 175, 29, 61, 92, 103, 17, 188, 59, 209, 189, 188, 160, 183, 147, 59, 188, 63, 23, 188, 116, 119, 10, 189, 245, 229, 37, 189, 148, 180, 23, 61, 205, 64, 191, 59, 98, 98, 14, 61, 53, 129, 42, 188, 33, 19, 35, 59, 35, 107, 122, 60, 10, 234, 143, 60, 251, 10, 17, 188, 79, 88, 26, 60, 6, 188, 42, 59, 25, 152, 45, 189, 52, 142, 5, 189, 241, 249, 215, 60, 142, 75, 27, 189, 33, 73, 31, 60, 77, 44, 245, 188, 58, 237, 25, 189, 145, 33, 220, 60, 159, 192, 13, 60, 116, 102, 16, 61, 187, 89, 196, 188, 85, 94, 22, 188, 107, 83, 52, 187, 226, 2, 27, 61, 7, 72, 19, 61, 251, 164, 173, 188, 142, 197, 244, 60, 175, 70, 230, 59, 156, 230, 37, 188, 115, 245, 15, 187, 210, 159, 20, 60, 10, 218, 22, 61, 107, 41, 27, 61, 214, 6, 182, 60, 24, 185, 240, 187, 26, 131, 249, 60, 75, 138, 231, 188, 237, 44, 6, 61, 158, 163, 40, 188, 43, 196, 34, 185, 78, 138, 13, 60, 98, 253, 132, 188, 111, 55, 162, 60, 7, 35, 71, 60, 17, 217, 210, 60, 45, 35, 11, 60, 127, 47, 150, 187, 143, 176, 167, 60, 70, 150, 18, 189, 42, 205, 245, 187, 24, 183, 45, 60, 227, 218, 161, 60, 66, 17, 14, 189, 82, 139, 76, 60, 24, 169, 52, 188, 237, 140, 103, 60, 234, 232, 83, 188, 138, 207, 49, 60, 108, 167, 220, 60, 63, 70, 251, 187, 246, 206, 239, 188, 133, 111, 147, 60, 190, 28, 189, 188, 105, 100, 27, 61, 177, 90, 176, 188, 90, 68, 20, 189, 4, 210, 24, 61, 250, 37, 1, 189, 40, 42, 14, 189, 22, 246, 220, 188, 114, 196, 32, 189, 136, 86, 247, 59, 123, 38, 12, 61, 188, 16, 5, 60, 143, 152, 14, 61, 84, 69, 159, 188, 183, 22, 109, 187, 38, 100, 14, 189, 187, 136, 28, 189, 38, 115, 17, 60, 6, 93, 237, 188, 186, 2, 27, 61, 18, 49, 7, 188, 61, 41, 138, 60, 144, 128, 206, 60, 121, 49, 170, 60, 198, 67, 11, 61, 73, 102, 203, 188, 56, 208, 213, 60, 2, 5, 119, 60, 153, 83, 15, 61, 199, 38, 18, 188, 185, 236, 51, 187, 239, 237, 150, 58, 109, 179, 140, 188, 17, 255, 225, 60, 169, 131, 207, 187, 54, 6, 166, 188, 111, 164, 222, 188, 235, 132, 175, 60, 152, 98, 245, 187, 18, 226, 29, 189, 98, 160, 244, 60, 240, 159, 12, 188, 170, 109, 8, 59, 102, 45, 149, 188, 220, 47, 11, 189, 214, 138, 25, 189, 63, 0, 186, 60, 60, 210, 13, 61, 113, 160, 149, 188, 30, 219, 15, 189, 181, 204, 34, 61, 143, 234, 147, 60, 7, 193, 44, 60, 219, 242, 5, 56, 223, 248, 124, 58, 38, 126, 255, 188, 90, 229, 126, 188, 69, 33, 44, 61, 102, 149, 13, 61, 80, 15, 73, 60, 250, 193, 154, 188, 92, 33, 232, 60, 19, 17, 34, 61, 23, 54, 215, 188, 223, 200, 33, 188, 240, 12, 8, 189, 127, 237, 26, 61, 124, 71, 153, 188, 193, 93, 22, 58, 68, 123, 253, 60, 126, 92, 175, 188, 40, 50, 179, 187, 113, 252, 79, 60, 238, 0, 38, 61, 46, 222, 203, 60, 89, 6, 175, 187, 93, 66, 160, 58, 85, 191, 3, 189, 250, 211, 116, 59, 1, 87, 203, 59, 72, 58, 238, 60, 155, 122, 15, 188, 166, 254, 211, 187, 229, 155, 176, 57, 196, 163, 195, 60, 254, 233, 144, 60, 234, 174, 134, 188, 54, 223, 174, 59, 161, 105, 7, 189, 98, 45, 11, 189, 166, 211, 129, 188, 215, 78, 166, 58, 25, 67, 121, 186, 39, 214, 119, 187, 19, 44, 151, 188, 153, 48, 210, 185, 98, 157, 129, 188, 103, 88, 162, 60, 86, 120, 202, 58, 72, 233, 84, 60, 224, 222, 132, 188, 72, 190, 101, 187, 132, 221, 198, 187, 188, 107, 172, 188, 5, 183, 213, 187, 135, 183, 104, 187, 217, 243, 40, 61, 55, 217, 161, 188, 129, 84, 44, 59, 76, 127, 4, 61, 193, 242, 49, 60, 219, 184, 212, 188, 26, 45, 243, 60, 68, 12, 74, 60, 21, 228, 8, 189, 4, 105, 204, 60, 14, 72, 244, 60, 160, 75, 193, 60, 6, 188, 39, 189, 107, 63, 239, 60, 153, 100, 240, 188, 236, 169, 38, 61, 118, 163, 234, 60, 176, 156, 134, 188, 124, 173, 15, 187, 77, 7, 112, 188, 143, 41, 247, 60, 184, 39, 194, 188, 72, 59, 213, 188, 70, 148, 44, 189, 141, 160, 15, 61, 75, 169, 39, 61, 153, 152, 127, 60, 125, 91, 32, 61, 38, 94, 81, 188, 53, 141, 80, 188, 31, 223, 43, 61, 72, 181, 1, 189, 254, 233, 11, 189, 162, 103, 143, 188, 207, 204, 21, 189, 49, 202, 103, 60, 42, 220, 31, 188, 124, 35, 208, 58, 134, 140, 157, 59, 251, 239, 33, 61, 228, 110, 185, 188, 61, 225, 220, 60, 5, 122, 210, 188, 120, 195, 196, 188, 190, 228, 16, 189, 156, 106, 155, 188, 239, 75, 12, 189, 192, 195, 239, 59, 90, 251, 122, 188, 62, 50, 33, 188, 198, 18, 16, 189, 52, 146, 16, 189, 49, 37, 149, 188, 239, 255, 240, 187, 103, 101, 9, 61, 46, 86, 184, 60, 132, 25, 30, 58, 176, 157, 246, 188, 172, 111, 10, 60, 39, 138, 247, 188, 55, 5, 159, 60, 58, 79, 232, 60, 228, 139, 199, 60, 182, 175, 156, 60, 134, 44, 14, 61, 46, 228, 236, 58, 225, 30, 254, 187, 47, 170, 240, 188, 16, 225, 33, 60, 116, 171, 7, 61, 168, 168, 1, 189, 156, 145, 20, 187, 45, 43, 184, 58, 171, 142, 28, 61, 41, 100, 31, 187, 233, 196, 15, 188, 18, 30, 52, 187, 168, 42, 37, 189, 62, 217, 37, 60, 219, 153, 197, 60, 104, 162, 130, 59, 42, 82, 14, 189, 30, 155, 196, 59, 252, 28, 19, 60, 197, 110, 249, 60, 78, 178, 242, 60, 86, 121, 44, 61, 81, 127, 215, 60, 229, 72, 177, 60, 188, 219, 254, 188, 173, 24, 81, 60, 218, 169, 146, 60, 52, 154, 227, 60, 171, 5, 17, 61, 201, 219, 42, 61, 173, 204, 36, 61, 148, 72, 113, 188, 82, 109, 250, 186, 144, 232, 159, 187, 166, 105, 181, 60, 12, 139, 32, 188, 178, 61, 9, 61, 210, 122, 167, 60, 9, 117, 91, 60, 97, 32, 171, 187, 124, 36, 104, 188, 90, 212, 223, 186, 62, 47, 182, 187, 78, 172, 159, 188, 243, 40, 198, 59, 186, 55, 12, 189, 117, 157, 41, 61, 158, 3, 25, 189, 182, 133, 19, 60, 44, 231, 16, 189, 170, 174, 24, 189, 62, 185, 204, 60, 113, 203, 40, 60, 66, 183, 89, 187, 85, 92, 1, 60, 106, 252, 0, 189, 55, 102, 16, 189, 21, 2, 216, 188, 37, 121, 0, 61, 42, 143, 24, 61, 192, 236, 149, 59, 240, 238, 62, 59, 184, 134, 69, 187, 219, 47, 12, 188, 58, 22, 49, 60, 234, 105, 71, 188, 174, 126, 30, 61, 203, 43, 184, 188, 29, 108, 31, 61, 138, 80, 190, 60, 47, 233, 191, 188, 47, 214, 202, 188, 251, 6, 42, 189, 76, 117, 19, 189, 230, 18, 86, 60, 119, 101, 175, 60, 221, 7, 214, 60, 52, 14, 172, 60, 79, 180, 232, 59, 86, 59, 0, 187, 54, 88, 157, 188, 68, 175, 199, 188, 169, 194, 57, 59, 44, 49, 88, 60, 62, 189, 193, 60, 151, 107, 0, 61, 201, 96, 181, 59, 34, 90, 150, 187, 185, 105, 162, 188, 24, 111, 10, 59, 68, 55, 3, 61, 131, 74, 54, 188, 154, 215, 74, 59, 211, 236, 136, 60, 30, 145, 146, 60, 231, 41, 80, 60, 35, 30, 160, 188, 3, 181, 68, 59, 58, 67, 8, 61, 24, 40, 232, 188, 129, 234, 241, 188, 173, 197, 222, 187, 211, 59, 3, 61, 89, 137, 25, 186, 239, 248, 141, 188, 210, 204, 44, 60, 30, 136, 147, 187, 8, 208, 36, 187, 223, 249, 31, 61, 195, 78, 192, 59, 43, 196, 34, 188, 177, 24, 253, 60, 208, 45, 152, 60, 66, 6, 93, 60, 78, 106, 227, 60, 24, 126, 156, 58, 217, 66, 215, 60, 37, 109, 172, 188, 162, 93, 9, 189, 132, 169, 94, 60, 255, 137, 163, 60, 129, 50, 9, 60, 22, 27, 143, 188, 142, 16, 23, 60, 221, 58, 1, 61, 165, 232, 18, 189, 18, 124, 14, 61, 27, 240, 187, 188, 41, 45, 17, 189, 57, 119, 28, 60, 171, 121, 237, 59, 23, 96, 226, 188, 206, 129, 26, 61, 5, 243, 201, 60, 92, 80, 94, 59, 9, 226, 42, 188, 208, 17, 162, 60, 105, 122, 42, 189, 208, 153, 196, 60, 8, 52, 152, 188, 103, 192, 164, 188, 226, 223, 62, 59, 167, 231, 31, 61, 96, 61, 14, 61, 92, 11, 205, 188, 66, 117, 2, 189, 243, 3, 30, 61, 180, 22, 197, 60, 188, 38, 29, 61, 10, 151, 178, 60, 115, 157, 145, 60, 132, 233, 235, 60, 171, 22, 222, 187, 234, 252, 196, 188, 17, 200, 29, 189, 192, 186, 192, 188, 216, 245, 136, 60, 47, 242, 151, 60, 167, 206, 36, 189, 108, 190, 247, 60, 8, 175, 208, 60, 247, 50, 233, 187, 100, 49, 211, 188, 2, 13, 139, 60, 165, 174, 40, 60, 90, 188, 143, 187, 27, 5, 214, 185, 207, 228, 13, 188, 237, 74, 252, 188, 142, 138, 81, 59, 125, 161, 73, 60, 137, 125, 187, 187, 63, 234, 231, 188, 79, 159, 56, 188, 30, 18, 184, 188, 162, 97, 147, 188, 237, 119, 117, 188, 9, 204, 5, 61, 41, 116, 112, 187, 175, 120, 65, 188, 202, 161, 16, 61, 16, 19, 41, 60, 17, 138, 203, 60, 32, 36, 19, 61, 179, 131, 118, 58, 42, 69, 241, 188, 93, 26, 8, 61, 17, 155, 44, 189, 204, 58, 43, 61, 54, 213, 203, 188, 89, 136, 239, 60, 246, 32, 201, 188, 48, 112, 30, 189, 15, 73, 158, 188, 209, 191, 20, 189, 167, 149, 20, 189, 23, 92, 82, 60, 113, 130, 152, 60, 221, 7, 104, 187, 148, 234, 240, 60, 13, 35, 10, 61, 96, 171, 25, 61, 31, 136, 154, 60, 14, 16, 125, 188, 119, 119, 5, 60, 115, 108, 14, 189, 96, 90, 36, 61, 54, 224, 158, 60, 8, 59, 33, 61, 24, 26, 55, 188, 33, 236, 252, 58, 42, 21, 40, 61, 199, 191, 123, 60, 37, 43, 4, 189, 122, 243, 181, 188, 148, 27, 228, 60, 47, 54, 235, 60, 211, 61, 244, 60, 249, 34, 254, 59, 241, 175, 199, 58, 123, 148, 149, 187, 11, 106, 5, 189, 11, 244, 149, 60, 83, 40, 8, 59, 25, 62, 168, 188, 237, 236, 5, 189, 134, 173, 227, 60, 5, 61, 8, 61, 114, 25, 173, 60, 119, 61, 14, 60, 75, 254, 181, 60, 181, 228, 133, 59, 104, 136, 12, 61, 143, 5, 233, 188, 92, 209, 242, 187, 241, 5, 120, 60, 185, 145, 178, 188, 92, 42, 25, 61, 21, 225, 78, 187, 57, 21, 170, 60, 94, 239, 164, 60, 239, 167, 29, 61, 50, 239, 91, 188, 210, 104, 146, 188, 61, 151, 208, 59, 106, 0, 227, 187, 33, 13, 187, 60, 227, 124, 212, 188, 238, 217, 173, 60, 89, 198, 15, 58, 191, 223, 201, 60, 70, 15, 44, 60, 15, 52, 43, 61, 23, 7, 240, 59, 46, 227, 189, 188, 7, 111, 42, 61, 45, 175, 171, 188, 96, 95, 140, 187, 25, 204, 7, 189, 137, 118, 198, 59, 116, 181, 76, 60, 118, 5, 18, 61, 167, 73, 45, 61, 15, 111, 177, 188, 216, 140, 218, 188, 111, 183, 161, 60, 194, 199, 7, 61, 162, 58, 142, 60, 94, 143, 18, 59, 166, 238, 208, 188, 255, 127, 103, 187, 241, 31, 174, 60, 153, 34, 183, 188, 44, 111, 208, 60, 76, 15, 34, 189, 47, 214, 237, 58, 0, 223, 22, 61, 254, 232, 201, 60, 171, 218, 223, 188, 169, 159, 21, 59, 76, 67, 96, 186, 90, 141, 43, 189, 186, 132, 119, 60, 249, 86, 196, 60, 2, 99, 138, 188, 193, 150, 169, 60, 86, 96, 36, 189, 133, 20, 61, 188, 152, 125, 185, 60, 163, 65, 223, 60, 168, 57, 147, 187, 45, 11, 158, 59, 134, 45, 143, 188, 67, 190, 218, 188, 154, 237, 237, 188, 108, 141, 183, 188, 63, 107, 75, 60, 86, 159, 172, 60, 62, 10, 19, 59, 148, 49, 78, 60, 23, 0, 82, 188, 22, 86, 199, 60, 32, 28, 40, 60, 88, 190, 146, 188, 119, 165, 39, 60, 20, 77, 42, 188, 0, 196, 163, 188, 82, 130, 205, 186, 192, 152, 172, 188, 217, 255, 204, 60, 116, 97, 187, 188, 51, 107, 166, 57, 12, 128, 29, 61, 174, 249, 168, 188, 4, 224, 249, 188, 54, 179, 144, 188, 19, 64, 0, 61, 95, 94, 233, 188, 199, 208, 37, 188, 69, 209, 206, 188, 51, 101, 177, 187, 199, 101, 34, 60, 217, 161, 209, 60, 121, 94, 151, 188, 1, 204, 3, 188, 140, 208, 148, 60, 75, 27, 22, 61, 211, 17, 41, 61, 86, 63, 73, 60, 77, 209, 7, 189, 96, 235, 21, 187, 207, 46, 173, 60, 60, 58, 34, 59, 71, 46, 252, 188, 96, 157, 49, 188, 154, 138, 28, 189, 163, 33, 40, 60, 202, 211, 64, 60, 208, 99, 168, 60, 4, 84, 69, 188, 50, 175, 156, 60, 77, 190, 28, 61, 108, 166, 131, 60, 245, 187, 166, 188, 13, 118, 125, 188, 152, 150, 102, 60, 194, 110, 24, 61, 189, 181, 117, 187, 67, 217, 23, 189, 212, 139, 191, 59, 228, 34, 200, 60, 4, 177, 0, 189, 23, 124, 72, 186, 101, 186, 119, 188, 136, 114, 221, 58, 189, 193, 251, 60, 12, 108, 245, 188, 217, 177, 15, 61, 188, 89, 87, 60, 247, 63, 1, 189, 203, 16, 58, 60, 155, 132, 24, 187, 55, 29, 216, 186, 232, 73, 11, 189, 176, 151, 8, 189, 49, 149, 227, 188, 82, 165, 244, 60, 89, 185, 33, 189, 23, 39, 191, 60, 75, 147, 253, 58, 94, 92, 125, 188, 175, 130, 60, 59, 111, 173, 100, 60, 94, 145, 59, 59, 232, 70, 126, 188, 123, 108, 42, 61, 102, 35, 67, 187, 100, 150, 235, 188, 156, 197, 173, 60, 199, 228, 146, 60, 3, 135, 12, 58, 178, 120, 238, 187, 100, 128, 141, 187, 177, 240, 149, 60, 32, 24, 35, 186, 173, 19, 192, 188, 210, 222, 88, 60, 154, 181, 186, 57, 181, 107, 212, 188, 142, 126, 232, 188, 248, 242, 36, 189, 160, 76, 228, 188, 131, 42, 16, 61, 230, 217, 68, 60, 168, 171, 11, 188, 136, 235, 154, 188, 96, 168, 191, 187, 117, 115, 8, 189, 137, 154, 213, 186, 11, 105, 198, 187, 190, 200, 14, 61, 235, 244, 137, 188, 170, 202, 70, 188, 157, 162, 37, 187, 152, 209, 171, 60, 204, 22, 26, 61, 100, 179, 6, 189, 132, 22, 254, 188, 72, 168, 16, 189, 241, 139, 18, 61, 233, 123, 22, 189, 151, 249, 29, 61, 68, 239, 22, 189, 239, 199, 150, 188, 90, 35, 145, 60, 185, 179, 212, 60, 77, 176, 108, 60, 56, 165, 84, 60, 153, 233, 9, 188, 191, 86, 14, 189, 192, 12, 41, 189, 185, 161, 234, 188, 231, 85, 167, 60, 219, 125, 24, 189, 55, 218, 254, 188, 148, 0, 238, 60, 223, 138, 34, 61, 29, 51, 18, 189, 27, 42, 29, 61, 207, 76, 155, 59, 219, 246, 220, 188, 28, 93, 136, 188, 109, 89, 137, 188, 197, 198, 232, 187, 2, 249, 246, 60, 161, 101, 243, 187, 29, 24, 45, 189, 172, 105, 144, 60, 218, 38, 2, 61, 250, 186, 162, 60, 211, 83, 141, 60, 109, 9, 227, 188, 77, 246, 28, 188, 156, 209, 51, 188, 224, 121, 175, 60, 225, 30, 144, 188, 110, 216, 94, 60, 140, 126, 86, 187, 161, 199, 182, 60, 199, 252, 30, 187, 184, 163, 161, 188, 98, 196, 186, 60, 95, 251, 13, 61, 219, 13, 27, 188, 68, 223, 90, 188, 168, 205, 219, 60, 209, 97, 163, 60, 177, 103, 67, 60, 19, 198, 185, 60, 40, 104, 173, 188, 164, 164, 38, 189, 114, 31, 190, 188, 46, 58, 15, 189, 147, 17, 11, 189, 205, 194, 91, 188, 119, 170, 64, 187, 11, 135, 29, 61, 180, 158, 22, 61, 134, 237, 206, 60, 170, 130, 239, 60, 241, 92, 223, 59, 210, 199, 165, 60, 217, 251, 5, 61, 199, 158, 30, 188, 177, 7, 78, 187, 18, 244, 155, 60, 26, 117, 135, 187, 180, 81, 14, 61, 29, 212, 11, 61, 8, 125, 107, 60, 8, 173, 40, 61, 31, 155, 37, 61, 222, 28, 130, 188, 66, 199, 33, 189, 118, 137, 178, 59, 221, 190, 8, 189, 24, 207, 11, 61, 170, 176, 237, 60, 87, 28, 20, 60, 168, 57, 2, 61, 156, 142, 188, 188, 21, 146, 112, 60, 109, 55, 8, 188, 251, 104, 33, 188, 178, 136, 208, 188, 166, 58, 28, 61, 126, 107, 84, 188, 103, 219, 119, 187, 167, 239, 241, 188, 254, 222, 33, 189, 46, 228, 223, 60, 5, 62, 213, 187, 129, 73, 98, 60, 112, 159, 133, 60, 179, 173, 241, 188, 163, 184, 184, 187, 203, 33, 238, 60, 124, 74, 15, 61, 46, 130, 82, 187, 128, 37, 33, 187, 201, 254, 9, 189, 112, 114, 232, 187, 80, 91, 170, 60, 159, 208, 24, 189, 198, 203, 128, 60, 61, 237, 175, 188, 197, 119, 6, 61, 207, 189, 45, 189, 105, 174, 124, 58, 182, 59, 20, 61, 2, 153, 23, 61, 75, 4, 217, 188, 77, 243, 221, 60, 80, 97, 64, 60, 51, 110, 252, 188, 28, 83, 194, 188, 227, 179, 185, 59, 32, 51, 157, 188, 111, 8, 24, 189, 67, 63, 229, 188, 242, 220, 232, 188, 117, 177, 196, 60, 146, 4, 143, 60, 75, 108, 28, 187, 99, 135, 179, 60, 147, 46, 33, 60, 223, 159, 196, 188, 77, 53, 110, 188, 211, 183, 13, 61, 83, 151, 229, 188, 21, 37, 131, 188, 33, 111, 108, 60, 201, 212, 235, 59, 164, 173, 47, 60, 100, 182, 41, 61, 107, 12, 185, 60, 155, 8, 16, 189, 29, 123, 4, 189, 63, 64, 128, 188, 60, 179, 41, 189, 4, 43, 28, 189, 156, 211, 14, 189, 32, 0, 120, 188, 103, 158, 173, 58, 251, 43, 232, 60, 239, 203, 84, 188, 236, 116, 4, 187, 150, 48, 237, 188, 74, 51, 146, 184, 63, 190, 10, 61, 124, 69, 148, 60, 178, 27, 32, 188, 244, 42, 27, 59, 48, 174, 31, 188, 2, 104, 0, 61, 195, 99, 154, 60, 61, 188, 42, 61, 151, 47, 27, 189, 173, 181, 34, 58, 29, 33, 166, 186, 135, 53, 146, 60, 74, 251, 20, 60, 25, 212, 80, 60, 88, 71, 22, 60, 254, 63, 152, 188, 71, 226, 165, 188, 223, 125, 226, 188, 203, 33, 186, 60, 177, 131, 161, 188, 181, 109, 